<unk>	0
[SOS]	0
[EOS]	0
[MASK]	0
▁a	-0
in	-1
▁t	-2
▁s	-3
ing	-4
▁w	-5
▁b	-6
he	-7
▁o	-8
an	-9
▁in	-10
it	-11
re	-12
▁the	-13
▁p	-14
▁d	-15
er	-16
ro	-17
▁c	-18
is	-19
ar	-20
▁m	-21
le	-22
▁do	-23
▁g	-24
▁an	-25
▁on	-26
la	-27
un	-28
▁f	-29
▁h	-30
ck	-31
ir	-32
al	-33
at	-34
▁dog	-35
▁is	-36
▁and	-37
▁r	-38
ith	-39
▁with	-40
lo	-41
▁man	-42
▁of	-43
ld	-44
▁st	-45
en	-46
id	-47
▁wh	-48
es	-49
om	-50
wo	-51
et	-52
▁two	-53
▁bo	-54
all	-55
▁to	-56
and	-57
wn	-58
ear	-59
as	-60
▁pla	-61
or	-62
▁play	-63
▁j	-64
▁th	-65
▁y	-66
irl	-67
▁girl	-68
▁wom	-69
ite	-70
▁l	-71
▁boy	-72
on	-73
▁sh	-74
ed	-75
her	-76
▁white	-77
oun	-78
ut	-79
red	-80
gh	-81
ch	-82
um	-83
▁are	-84
lack	-85
▁black	-86
▁wat	-87
▁run	-88
▁woman	-89
▁ch	-90
ple	-91
rou	-92
▁wear	-93
ur	-94
ow	-95
ers	-96
ge	-97
ild	-98
king	-99
▁wearing	-100
▁stand	-101
ack	-102
irt	-103
▁at	-104
ide	-105
itt	-106
ump	-107
ard	-108
ot	-109
▁n	-110
▁jump	-111
▁pe	-112
rown	-113
▁water	-114
ic	-115
▁red	-116
▁sn	-117
▁brown	-118
▁youn	-119
▁young	-120
ople	-121
▁people	-122
▁ro	-123
▁child	-124
ver	-125
ss	-126
▁snow	-127
il	-128
und	-129
▁be	-130
ue	-131
am	-132
▁gr	-133
▁ho	-134
im	-135
ile	-136
▁bl	-137
▁his	-138
▁co	-139
ce	-140
el	-141
▁fro	-142
bo	-143
▁blue	-144
▁sm	-145
▁lo	-146
ass	-147
ning	-148
ri	-149
▁dogs	-150
ad	-151
▁running	-152
▁po	-153
st	-154
▁sk	-155
▁wal	-156
▁shirt	-157
low	-158
▁out	-159
rough	-160
round	-161
▁grass	-162
ree	-163
▁through	-164
▁down	-165
▁playing	-166
▁while	-167
▁hold	-168
its	-169
▁fi	-170
up	-171
board	-172
ain	-173
▁ball	-174
ke	-175
▁standing	-176
▁litt	-177
▁little	-178
ach	-179
▁fo	-180
▁gre	-181
▁sw	-182
▁over	-183
ve	-184
▁rid	-185
▁e	-186
ts	-187
▁bi	-188
▁he	-189
erson	-190
▁loo	-191
▁person	-192
ks	-193
▁k	-194
▁back	-195
▁jumping	-196
▁three	-197
▁le	-198
▁la	-199
▁ra	-200
▁up	-201
▁mo	-202
ellow	-203
ap	-204
▁small	-205
nt	-206
▁holding	-207
▁yellow	-208
▁rock	-209
to	-210
▁car	-211
▁skat	-212
▁tr	-213
ren	-214
ball	-215
se	-216
side	-217
eld	-218
▁lar	-219
▁front	-220
itting	-221
▁green	-222
▁by	-223
▁cl	-224
▁grou	-225
▁group	-226
▁field	-227
▁children	-228
▁sitting	-229
▁large	-230
▁walking	-231
▁air	-232
air	-233
▁her	-234
ay	-235
▁one	-236
ul	-237
▁som	-238
▁near	-239
▁as	-240
▁stre	-241
ink	-242
▁skate	-243
uth	-244
ick	-245
▁mouth	-246
ying	-247
▁sp	-248
yc	-249
▁men	-250
▁bu	-251
ght	-252
ark	-253
ol	-254
▁skateboard	-255
ount	-256
▁for	-257
od	-258
other	-259
if	-260
▁runs	-261
▁its	-262
▁beach	-263
lon	-264
ress	-265
imb	-266
▁from	-267
ind	-268
▁re	-269
▁climb	-270
▁another	-271
▁into	-272
▁jumps	-273
▁street	-274
▁dress	-275
ountain	-276
hes	-277
▁or	-278
▁ne	-279
▁girls	-280
▁cam	-281
ther	-282
▁riding	-283
hing	-284
ab	-285
▁other	-286
▁stands	-287
acket	-288
▁sur	-289
▁pink	-290
row	-291
ange	-292
orm	-293
▁bike	-294
▁jacket	-295
rick	-296
▁orange	-297
ground	-298
▁hat	-299
▁hand	-300
▁off	-301
ycle	-302
▁some	-303
▁mountain	-304
▁wa	-305
▁toy	-306
▁camer	-307
ent	-308
▁outside	-309
ross	-310
xt	-311
▁side	-312
▁looking	-313
▁sl	-314
▁camera	-315
ll	-316
▁swim	-317
iling	-318
▁player	-319
ure	-320
▁so	-321
▁bas	-322
▁next	-323
ves	-324
▁hi	-325
▁cat	-326
ill	-327
▁their	-328
ood	-329
▁sho	-330
▁se	-331
▁go	-332
▁boys	-333
ct	-334
cer	-335
▁stick	-336
▁pool	-337
▁ar	-338
▁fa	-339
ak	-340
▁wood	-341
▁around	-342
ep	-343
ion	-344
hind	-345
▁wall	-346
▁behind	-347
us	-348
▁head	-349
▁park	-350
▁sand	-351
▁dirt	-352
ting	-353
▁surf	-354
▁sits	-355
uit	-356
ches	-357
lass	-358
▁bic	-359
ig	-360
ching	-361
les	-362
▁women	-363
ight	-364
▁kid	-365
▁dr	-366
▁has	-367
▁trick	-368
▁walks	-369
▁alon	-370
▁background	-371
dy	-372
rowd	-373
ture	-374
▁crowd	-375
▁foot	-376
ag	-377
▁pic	-378
▁tan	-379
ter	-380
▁clo	-381
aking	-382
▁soc	-383
▁along	-384
▁swing	-385
cing	-386
▁soccer	-387
▁un	-388
ud	-389
ly	-390
▁te	-391
▁dressed	-392
one	-393
▁top	-394
cross	-395
▁smiling	-396
ist	-397
▁four	-398
do	-399
▁sun	-400
▁climbing	-401
▁v	-402
alk	-403
▁snowboard	-404
▁hel	-405
▁picture	-406
ip	-407
rying	-408
▁tree	-409
ilding	-410
▁building	-411
▁hill	-412
▁looks	-413
▁plays	-414
lasses	-415
▁pos	-416
▁football	-417
em	-418
▁carrying	-419
▁fl	-420
▁swimm	-421
▁face	-422
▁bicycle	-423
▁fen	-424
way	-425
walk	-426
amp	-427
ket	-428
ine	-429
▁arm	-430
▁ben	-431
▁holds	-432
ward	-433
▁mot	-434
▁doing	-435
▁across	-436
get	-437
cean	-438
ging	-439
▁ten	-440
▁shor	-441
▁ocean	-442
ie	-443
▁grassy	-444
▁swimming	-445
▁it	-446
door	-447
▁snowy	-448
gether	-449
▁together	-450
dle	-451
ame	-452
ath	-453
▁hair	-454
nis	-455
▁unif	-456
▁tennis	-457
ug	-458
▁him	-459
▁helm	-460
▁uniform	-461
pe	-462
form	-463
▁old	-464
▁helmet	-465
ving	-466
▁colo	-467
▁br	-468
▁pur	-469
▁race	-470
▁sidewalk	-471
lond	-472
▁hor	-473
▁ski	-474
▁und	-475
▁that	-476
▁blond	-477
be	-478
▁under	-479
▁per	-480
▁rides	-481
pp	-482
▁basket	-483
▁sc	-484
▁bab	-485
▁road	-486
▁area	-487
sh	-488
led	-489
▁baby	-490
ity	-491
rest	-492
▁chas	-493
▁leap	-494
able	-495
▁fence	-496
ng	-497
vered	-498
▁basketball	-499
▁mid	-500
▁motor	-501
qu	-502
▁ob	-503
▁bench	-504
ey	-505
▁each	-506
▁par	-507
ling	-508
▁bik	-509
▁shorts	-510
ast	-511
▁gu	-512
▁high	-513
▁walk	-514
▁toward	-515
bb	-516
▁kids	-517
te	-518
age	-519
▁fr	-520
▁dan	-521
▁slide	-522
▁ground	-523
▁perform	-524
▁grey	-525
ants	-526
ff	-527
▁outdoor	-528
▁skateboarder	-529
ne	-530
▁abo	-531
ice	-532
▁ad	-533
ans	-534
▁sit	-535
ething	-536
▁something	-537
akes	-538
ped	-539
▁con	-540
▁catch	-541
▁purple	-542
▁tre	-543
▁ramp	-544
▁stri	-545
▁che	-546
▁game	-547
ph	-548
are	-549
▁cou	-550
▁boat	-551
▁path	-552
ail	-553
ian	-554
▁get	-555
▁lake	-556
▁ph	-557
▁big	-558
▁com	-559
▁base	-560
▁covered	-561
▁posing	-562
eat	-563
▁bar	-564
▁being	-565
gs	-566
▁guy	-567
▁city	-568
▁slid	-569
▁flo	-570
▁motorc	-571
▁snowboarder	-572
hed	-573
iff	-574
ycl	-575
▁ri	-576
veral	-577
▁coat	-578
▁pants	-579
▁smile	-580
▁there	-581
▁several	-582
pen	-583
▁bal	-584
▁spla	-585
umb	-586
▁arms	-587
▁han	-588
ful	-589
▁ha	-590
▁track	-591
▁trees	-592
ies	-593
▁rocks	-594
▁baseball	-595
ac	-596
▁de	-597
▁je	-598
▁she	-599
▁clot	-600
▁dark	-601
▁wave	-602
▁players	-603
ign	-604
▁watching	-605
av	-606
▁does	-607
▁them	-608
ces	-609
▁wet	-610
glasses	-611
▁wooden	-612
aw	-613
bee	-614
▁dri	-615
▁fris	-616
▁sweat	-617
▁table	-618
▁couple	-619
ect	-620
▁ag	-621
ating	-622
▁frisbee	-623
▁watches	-624
▁sunglasses	-625
▁long	-626
▁rocky	-627
pack	-628
▁sign	-629
▁hands	-630
ird	-631
use	-632
▁bot	-633
shirt	-634
▁backpack	-635
▁adul	-636
▁read	-637
op	-638
ale	-639
▁af	-640
▁lady	-641
▁roll	-642
▁river	-643
ire	-644
ler	-645
ries	-646
▁ride	-647
▁horse	-648
▁splas	-649
▁team	-650
▁surround	-651
oto	-652
▁kick	-653
▁open	-654
▁photo	-655
▁cap	-656
▁str	-657
▁rope	-658
▁climbs	-659
ired	-660
▁bes	-661
▁look	-662
▁bus	-663
▁fis	-664
▁mud	-665
▁cour	-666
▁outf	-667
▁older	-668
▁beside	-669
▁racing	-670
▁towards	-671
▁motorcycle	-672
ant	-673
ess	-674
ugh	-675
▁bag	-676
▁fla	-677
▁who	-678
▁coll	-679
▁taking	-680
▁striped	-681
ft	-682
ry	-683
ub	-684
airs	-685
▁att	-686
▁suit	-687
by	-688
▁set	-689
iting	-690
▁cross	-691
▁fight	-692
▁throw	-693
▁inside	-694
end	-695
ull	-696
▁pose	-697
▁chasing	-698
ment	-699
▁onto	-700
▁color	-701
▁watch	-702
▁glasses	-703
▁step	-704
▁asian	-705
▁pain	-706
▁cliff	-707
▁am	-708
ainst	-709
▁bird	-710
▁above	-711
▁against	-712
▁surrounded	-713
▁ver	-714
▁past	-715
▁leaps	-716
stum	-717
ake	-718
▁drin	-719
man	-720
yclist	-721
▁costum	-722
rap	-723
rel	-724
▁ed	-725
▁bat	-726
▁can	-727
▁ice	-728
uring	-729
▁yard	-730
▁takes	-731
▁hanging	-732
dd	-733
▁brid	-734
▁edge	-735
▁laugh	-736
▁collar	-737
▁forest	-738
▁outdoors	-739
▁obj	-740
▁after	-741
▁blonde	-742
▁wind	-743
▁rider	-744
▁colorful	-745
▁playground	-746
pet	-747
▁whe	-748
▁jeans	-749
▁sliding	-750
ted	-751
▁bri	-752
▁sto	-753
▁tal	-754
▁blow	-755
▁bubb	-756
▁rest	-757
▁very	-758
▁skier	-759
▁woods	-760
▁smiles	-761
▁mountains	-762
▁no	-763
▁sky	-764
▁brick	-765
▁object	-766
▁performing	-767
ash	-768
uff	-769
▁bed	-770
▁body	-771
▁laying	-772
▁hik	-773
ation	-774
▁bright	-775
▁colored	-776
we	-777
ell	-778
ilst	-779
allow	-780
▁flow	-781
▁poin	-782
▁todd	-783
▁shore	-784
▁swims	-785
▁midair	-786
▁whilst	-787
ok	-788
ses	-789
▁cur	-790
▁ear	-791
▁steps	-792
▁eating	-793
uck	-794
ckey	-795
▁spr	-796
▁ves	-797
▁gear	-798
▁bridge	-799
▁outfit	-800
co	-801
ty	-802
ace	-803
ate	-804
ike	-805
lder	-806
▁cow	-807
▁lif	-808
▁biker	-809
▁board	-810
▁during	-811
▁haired	-812
▁fountain	-813
unn	-814
▁bott	-815
▁gold	-816
▁many	-817
▁pole	-818
▁dancing	-819
upp	-820
▁en	-821
▁fe	-822
ance	-823
▁tur	-824
▁five	-825
▁jers	-826
▁making	-827
iz	-828
ound	-829
▁win	-830
oking	-831
▁sled	-832
▁light	-833
▁jersey	-834
▁others	-835
▁shallow	-836
▁toddler	-837
ner	-838
less	-839
▁pro	-840
▁tall	-841
▁middle	-842
▁ey	-843
▁met	-844
uitar	-845
▁away	-846
▁gray	-847
▁night	-848
▁guitar	-849
▁roller	-850
▁trying	-851
▁someone	-852
fla	-853
ding	-854
etwe	-855
▁pad	-856
▁pre	-857
phone	-858
etween	-859
▁going	-860
▁course	-861
▁surfer	-862
▁between	-863
▁carries	-864
▁railing	-865
ade	-866
▁cr	-867
▁kay	-868
▁lea	-869
▁band	-870
▁wrest	-871
▁uniforms	-872
ust	-873
▁dis	-874
▁mat	-875
▁fall	-876
▁rail	-877
▁teen	-878
▁trail	-879
▁nearby	-880
▁costume	-881
ched	-882
ings	-883
stic	-884
▁fem	-885
▁pon	-886
▁this	-887
▁upside	-888
▁plastic	-889
▁sweater	-890
ily	-891
▁cor	-892
▁mar	-893
▁wor	-894
▁fire	-895
▁show	-896
▁house	-897
▁poses	-898
▁train	-899
▁adults	-900
▁swinging	-901
▁surfboard	-902
oot	-903
grap	-904
▁hug	-905
▁ret	-906
ather	-907
▁line	-908
▁pupp	-909
▁room	-910
▁chair	-911
▁drink	-912
▁metal	-913
▁wheel	-914
▁stairs	-915
▁window	-916
▁leaping	-917
▁splashing	-918
os	-919
ican	-920
▁all	-921
▁umb	-922
rella	-923
▁lean	-924
▁ready	-925
▁waves	-926
▁hockey	-927
▁winter	-928
▁drinking	-929
▁umbrella	-930
▁photograp	-931
alle	-932
uddle	-933
▁vest	-934
▁about	-935
▁clothes	-936
▁fighting	-937
ps	-938
ti	-939
▁ca	-940
stac	-941
▁box	-942
erman	-943
pping	-944
▁land	-945
▁obstac	-946
▁shirts	-947
▁talking	-948
ons	-949
▁em	-950
▁hu	-951
▁pl	-952
aper	-953
ping	-954
▁pol	-955
▁bear	-956
▁dist	-957
▁goal	-958
▁stone	-959
▁store	-960
▁compet	-961
▁obstacle	-962
ated	-963
▁fol	-964
▁har	-965
▁hur	-966
▁busy	-967
▁legs	-968
▁life	-969
▁they	-970
▁leash	-971
▁wears	-972
▁bubbles	-973
sc	-974
aff	-975
cre	-976
emp	-977
▁ex	-978
▁us	-979
lock	-980
ness	-981
▁kis	-982
▁sil	-983
ction	-984
iving	-985
▁numb	-986
▁floor	-987
▁female	-988
▁skateboarding	-989
bor	-990
▁pul	-991
▁sle	-992
ampol	-993
hound	-994
▁trun	-995
▁close	-996
▁slides	-997
▁tricks	-998
ampoline	-999
▁catches	-1000
▁getting	-1001
▁performs	-1002
▁trampoline	-1003
ive	-1004
▁jo	-1005
▁lot	-1006
crete	-1007
▁flip	-1008
▁lawn	-1009
▁mark	-1010
▁pass	-1011
▁rain	-1012
▁star	-1013
▁attemp	-1014
▁flying	-1015
▁horses	-1016
▁climber	-1017
▁catching	-1018
▁concrete	-1019
▁laughing	-1020
▁greyhound	-1021
▁shirtless	-1022
ys	-1023
bla	-1024
iew	-1025
pla	-1026
▁app	-1027
▁bags	-1028
▁hood	-1029
▁view	-1030
▁adult	-1031
▁golden	-1032
▁leaning	-1033
▁waiting	-1034
▁clothing	-1035
hic	-1036
ots	-1037
▁ve	-1038
▁des	-1039
▁equ	-1040
▁log	-1041
▁rac	-1042
▁spe	-1043
▁cell	-1044
▁chew	-1045
▁male	-1046
▁elder	-1047
▁fishing	-1048
ats	-1049
tic	-1050
ones	-1051
▁kne	-1052
ement	-1053
▁pond	-1054
▁hiker	-1055
▁swings	-1056
▁harness	-1057
▁cellphone	-1058
▁rollerbla	-1059
ym	-1060
zz	-1061
ige	-1062
ley	-1063
ort	-1064
imal	-1065
ngue	-1066
▁slo	-1067
▁sub	-1068
▁cano	-1069
▁eyes	-1070
▁prep	-1071
▁tank	-1072
▁tire	-1073
▁turn	-1074
▁ballo	-1075
▁sandy	-1076
▁vehic	-1077
▁animal	-1078
▁follow	-1079
▁overlo	-1080
▁tongue	-1081
▁throwing	-1082
els	-1083
▁art	-1084
unnel	-1085
▁ears	-1086
ipment	-1087
▁beard	-1088
▁kayak	-1089
▁makes	-1090
▁number	-1091
▁puddle	-1092
▁tunnel	-1093
▁equipment	-1094
gg	-1095
ane	-1096
ator	-1097
suit	-1098
ural	-1099
▁ele	-1100
▁gym	-1101
▁flag	-1102
▁hats	-1103
▁hoop	-1104
▁kiss	-1105
▁infla	-1106
▁chases	-1107
▁leaves	-1108
▁elderly	-1109
io	-1110
arf	-1111
aur	-1112
rie	-1113
unt	-1114
ares	-1115
ists	-1116
uffy	-1117
▁day	-1118
▁ste	-1119
▁gets	-1120
▁lone	-1121
▁puppy	-1122
▁retrie	-1123
▁blowing	-1124
▁distance	-1125
ho	-1126
ase	-1127
ier	-1128
str	-1129
▁ap	-1130
▁bre	-1131
▁led	-1132
▁mas	-1133
▁opp	-1134
▁rug	-1135
▁cars	-1136
▁form	-1137
▁shoes	-1138
▁tries	-1139
▁cement	-1140
▁hiking	-1141
▁hurdle	-1142
▁bathing	-1143
uzz	-1144
▁al	-1145
▁pr	-1146
▁bun	-1147
▁pit	-1148
▁put	-1149
▁row	-1150
table	-1151
▁both	-1152
▁deep	-1153
▁door	-1154
▁ring	-1155
▁balls	-1156
▁ledge	-1157
▁stunt	-1158
▁indoor	-1159
▁skiing	-1160
▁subway	-1161
▁waters	-1162
▁wooded	-1163
▁inflatable	-1164
▁pa	-1165
▁sa	-1166
▁tu	-1167
▁cle	-1168
▁fur	-1169
allen	-1170
ition	-1171
▁guys	-1172
▁like	-1173
▁padd	-1174
▁canoe	-1175
▁lying	-1176
▁slope	-1177
▁hugging	-1178
▁setting	-1179
▁pictures	-1180
iv	-1181
ban	-1182
ium	-1183
ool	-1184
sel	-1185
aved	-1186
▁dig	-1187
▁low	-1188
▁ref	-1189
▁bare	-1190
▁feet	-1191
▁fish	-1192
▁left	-1193
▁make	-1194
▁nose	-1195
▁take	-1196
▁work	-1197
▁block	-1198
▁paint	-1199
▁paper	-1200
▁short	-1201
▁stair	-1202
▁bottle	-1203
▁fluffy	-1204
▁dresses	-1205
▁sweatshirt	-1206
br	-1207
ced	-1208
ater	-1209
ines	-1210
read	-1211
aurant	-1212
▁cheer	-1213
▁rough	-1214
▁sleep	-1215
▁spray	-1216
▁fallen	-1217
▁underw	-1218
▁pulling	-1219
jo	-1220
act	-1221
▁me	-1222
▁qu	-1223
▁pus	-1224
▁boun	-1225
▁buck	-1226
▁dock	-1227
▁enjo	-1228
▁huge	-1229
▁skis	-1230
erican	-1231
▁muddy	-1232
▁right	-1233
yclists	-1234
▁german	-1235
▁silver	-1236
▁flowers	-1237
▁skating	-1238
▁surface	-1239
▁surfing	-1240
▁wetsuit	-1241
▁shopping	-1242
▁restaurant	-1243
ape	-1244
ger	-1245
ial	-1246
avel	-1247
▁cig	-1248
▁fam	-1249
▁hit	-1250
borne	-1251
cture	-1252
▁fing	-1253
▁food	-1254
▁muzz	-1255
▁below	-1256
▁bikes	-1257
▁boots	-1258
▁glass	-1259
▁grind	-1260
▁kicks	-1261
▁plaid	-1262
▁skirt	-1263
▁chairs	-1264
▁dances	-1265
▁family	-1266
▁airborne	-1267
▁overlooking	-1268
mo	-1269
cor	-1270
ery	-1271
igh	-1272
ini	-1273
ish	-1274
ught	-1275
uits	-1276
▁dry	-1277
▁fet	-1278
▁glo	-1279
▁lap	-1280
▁leg	-1281
▁tug	-1282
ading	-1283
▁bald	-1284
▁goes	-1285
▁shou	-1286
▁tent	-1287
phones	-1288
▁poles	-1289
▁scarf	-1290
▁using	-1291
▁stream	-1292
▁driving	-1293
▁jackets	-1294
▁pointing	-1295
ha	-1296
est	-1297
out	-1298
pes	-1299
aked	-1300
band	-1301
head	-1302
herd	-1303
▁ter	-1304
pherd	-1305
▁held	-1306
▁mask	-1307
▁plat	-1308
▁raft	-1309
▁vide	-1310
▁dance	-1311
▁faces	-1312
▁flies	-1313
▁steep	-1314
▁stret	-1315
▁stuff	-1316
▁market	-1317
▁trunks	-1318
▁balloon	-1319
▁kicking	-1320
▁parking	-1321
▁vehicle	-1322
▁american	-1323
▁splashes	-1324
▁photograph	-1325
sp	-1326
arm	-1327
awk	-1328
lic	-1329
ong	-1330
tte	-1331
ents	-1332
hawk	-1333
rack	-1334
rist	-1335
yard	-1336
▁ban	-1337
▁dun	-1338
▁gro	-1339
▁ind	-1340
▁mon	-1341
▁mus	-1342
▁new	-1343
▁sch	-1344
▁vol	-1345
anket	-1346
lored	-1347
▁neck	-1348
▁spor	-1349
▁stru	-1350
▁wide	-1351
arette	-1352
▁bunch	-1353
▁clear	-1354
▁court	-1355
▁cover	-1356
▁flags	-1357
▁oppos	-1358
leyball	-1359
▁appear	-1360
▁bucket	-1361
▁coming	-1362
▁displa	-1363
▁drinks	-1364
▁fenced	-1365
▁mohawk	-1366
▁school	-1367
▁blanket	-1368
▁cyclist	-1369
▁falling	-1370
▁smaller	-1371
▁stuffed	-1372
▁teenage	-1373
▁shepherd	-1374
▁bicyclist	-1375
▁cigarette	-1376
▁structure	-1377
▁rollerblad	-1378
▁volleyball	-1379
gy	-1380
ids	-1381
ugg	-1382
ute	-1383
▁cre	-1384
▁squ	-1385
▁have	-1386
▁pile	-1387
▁pull	-1388
▁rais	-1389
▁stat	-1390
▁toys	-1391
etrack	-1392
haired	-1393
icycle	-1394
▁count	-1395
▁party	-1396
▁scoot	-1397
▁truck	-1398
▁diving	-1399
▁throws	-1400
▁backyard	-1401
▁painting	-1402
▁racetrack	-1403
ads	-1404
ips	-1405
ned	-1406
ron	-1407
▁ev	-1408
▁kn	-1409
cher	-1410
foot	-1411
lers	-1412
▁hom	-1413
▁kit	-1414
▁mul	-1415
▁rod	-1416
▁tou	-1417
▁bran	-1418
▁full	-1419
▁tube	-1420
aching	-1421
▁birds	-1422
▁graff	-1423
▁hangs	-1424
▁match	-1425
▁offic	-1426
▁rugby	-1427
▁police	-1428
▁sports	-1429
▁statue	-1430
▁reading	-1431
▁sleeping	-1432
▁swimsuit	-1433
▁wrestling	-1434
ix	-1435
che	-1436
ert	-1437
iti	-1438
fall	-1439
ious	-1440
line	-1441
vers	-1442
▁bro	-1443
ached	-1444
▁bars	-1445
▁cont	-1446
▁crou	-1447
▁seat	-1448
▁wait	-1449
ession	-1450
▁among	-1451
▁biting	-1452
▁bubble	-1453
▁christ	-1454
▁racket	-1455
▁sprink	-1456
▁leather	-1457
▁scooter	-1458
▁smoking	-1459
▁barefoot	-1460
▁bicycles	-1461
▁crossing	-1462
▁graffiti	-1463
▁headband	-1464
▁platform	-1465
▁prepares	-1466
▁motorcyclist	-1467
alm	-1468
als	-1469
ann	-1470
app	-1471
eth	-1472
ins	-1473
ipe	-1474
mas	-1475
ret	-1476
ush	-1477
wor	-1478
▁we	-1479
ales	-1480
ates	-1481
ives	-1482
ized	-1483
rier	-1484
unny	-1485
▁cup	-1486
▁few	-1487
▁pat	-1488
aster	-1489
fully	-1490
scape	-1491
urban	-1492
▁hard	-1493
▁same	-1494
▁balan	-1495
▁bride	-1496
▁furry	-1497
▁heads	-1498
▁racer	-1499
▁speed	-1500
▁video	-1501
covered	-1502
▁bottom	-1503
▁wading	-1504
▁crowded	-1505
▁display	-1506
▁outfits	-1507
▁buildings	-1508
▁waterfall	-1509
ou	-1510
kes	-1511
▁wr	-1512
ally	-1513
ends	-1514
▁col	-1515
▁fri	-1516
▁wed	-1517
ators	-1518
▁bull	-1519
▁mach	-1520
▁pood	-1521
▁shad	-1522
▁spot	-1523
▁beige	-1524
▁cowbo	-1525
▁curly	-1526
▁event	-1527
▁phone	-1528
▁round	-1529
▁suits	-1530
▁talks	-1531
▁teeth	-1532
▁carpet	-1533
▁corner	-1534
▁drives	-1535
▁bearded	-1536
▁cheerle	-1537
▁shaking	-1538
▁christmas	-1539
▁landscape	-1540
▁underwater	-1541
▁snowboarding	-1542
ny	-1543
ary	-1544
ges	-1545
ich	-1546
top	-1547
whe	-1548
bile	-1549
case	-1550
hill	-1551
rail	-1552
roll	-1553
▁bow	-1554
▁exp	-1555
▁hot	-1556
▁med	-1557
affic	-1558
aring	-1559
hered	-1560
▁book	-1561
▁cart	-1562
▁corn	-1563
▁fast	-1564
▁just	-1565
▁moto	-1566
▁sing	-1567
▁toss	-1568
▁wake	-1569
▁wire	-1570
▁couch	-1571
▁outst	-1572
▁stage	-1573
▁desert	-1574
▁gravel	-1575
▁sticks	-1576
▁teenag	-1577
▁kissing	-1578
▁traffic	-1579
▁watersk	-1580
▁costumes	-1581
▁matching	-1582
▁backpacks	-1583
▁cheerlead	-1584
▁motocross	-1585
▁headphones	-1586
ib	-1587
ls	-1588
ien	-1589
sed	-1590
ubb	-1591
aped	-1592
chen	-1593
iece	-1594
ined	-1595
look	-1596
self	-1597
▁net	-1598
▁pub	-1599
▁saf	-1600
▁say	-1601
▁six	-1602
▁way	-1603
eling	-1604
ights	-1605
illed	-1606
stand	-1607
▁home	-1608
▁jeep	-1609
▁prof	-1610
▁shoe	-1611
▁wrap	-1612
ricket	-1613
▁apple	-1614
▁check	-1615
▁naked	-1616
▁paved	-1617
▁purse	-1618
▁rural	-1619
▁spect	-1620
▁urban	-1621
▁which	-1622
▁bikini	-1623
▁finger	-1624
▁gloves	-1625
▁moving	-1626
▁poodle	-1627
▁public	-1628
▁thrown	-1629
▁cricket	-1630
▁kitchen	-1631
▁painted	-1632
▁rolling	-1633
▁wrestle	-1634
▁younger	-1635
▁spectators	-1636
▁competition	-1637
▁skateboards	-1638
ky	-1639
con	-1640
ical	-1641
tial	-1642
▁emp	-1643
▁ped	-1644
▁tro	-1645
aches	-1646
rican	-1647
▁craw	-1648
▁drag	-1649
▁duck	-1650
▁eats	-1651
▁grab	-1652
▁happ	-1653
▁hind	-1654
▁lick	-1655
▁pick	-1656
▁pige	-1657
▁shop	-1658
▁tack	-1659
▁backs	-1660
▁guard	-1661
▁instr	-1662
▁newsp	-1663
▁piece	-1664
▁teams	-1665
colored	-1666
lookers	-1667
retched	-1668
▁cowboy	-1669
▁flower	-1670
▁gather	-1671
▁hooded	-1672
▁skates	-1673
▁splash	-1674
▁spread	-1675
▁chewing	-1676
▁closeup	-1677
▁martial	-1678
▁pigeons	-1679
▁staring	-1680
▁wedding	-1681
▁attempts	-1682
▁handrail	-1683
▁shoulder	-1684
▁attempting	-1685
▁outstretched	-1686
ds	-1687
mx	-1688
arp	-1689
art	-1690
aut	-1691
ese	-1692
ety	-1693
ime	-1694
ore	-1695
set	-1696
back	-1697
boat	-1698
ered	-1699
hers	-1700
iful	-1701
▁bmx	-1702
▁hay	-1703
▁not	-1704
▁tat	-1705
arden	-1706
▁bath	-1707
▁gymn	-1708
▁hole	-1709
▁hula	-1710
▁pave	-1711
▁rode	-1712
▁uses	-1713
▁beaut	-1714
▁decor	-1715
▁dirty	-1716
▁sheep	-1717
▁sniff	-1718
▁trunk	-1719
▁bikers	-1720
▁caught	-1721
▁garden	-1722
▁hikers	-1723
▁hoodie	-1724
▁motorb	-1725
▁parked	-1726
▁points	-1727
▁runner	-1728
▁seated	-1729
▁snowmo	-1730
▁stroll	-1731
▁waving	-1732
essional	-1733
▁african	-1734
▁appears	-1735
▁digging	-1736
▁instrum	-1737
▁pushing	-1738
▁station	-1739
▁paddling	-1740
▁pavement	-1741
▁sticking	-1742
▁beautiful	-1743
▁formation	-1744
▁onlookers	-1745
▁greyhounds	-1746
▁professional	-1747
hle	-1748
irc	-1749
ven	-1750
▁ac	-1751
▁vi	-1752
irst	-1753
reek	-1754
rent	-1755
▁atv	-1756
▁end	-1757
▁gat	-1758
▁hal	-1759
▁int	-1760
▁jog	-1761
▁paw	-1762
▁rap	-1763
▁tho	-1764
arrow	-1765
chair	-1766
ience	-1767
▁airp	-1768
▁card	-1769
▁deck	-1770
▁gogg	-1771
▁hall	-1772
▁pipe	-1773
▁scen	-1774
▁scre	-1775
▁shag	-1776
▁shot	-1777
ending	-1778
▁creek	-1779
▁eleph	-1780
▁empty	-1781
▁float	-1782
▁plane	-1783
▁rodeo	-1784
▁straw	-1785
▁sunny	-1786
▁waits	-1787
▁having	-1788
▁mouths	-1789
▁parach	-1790
▁parade	-1791
▁safety	-1792
▁sunset	-1793
▁putting	-1794
▁attached	-1795
▁gathered	-1796
▁grinding	-1797
▁playfully	-1798
▁wakeboard	-1799
▁rollerblades	-1800
aks	-1801
avy	-1802
com	-1803
der	-1804
oms	-1805
anna	-1806
down	-1807
icem	-1808
▁aud	-1809
▁dev	-1810
▁eye	-1811
▁mil	-1812
▁own	-1813
▁tri	-1814
▁war	-1815
ctive	-1816
illow	-1817
itary	-1818
▁blur	-1819
▁circ	-1820
▁comp	-1821
▁dune	-1822
▁fore	-1823
▁hits	-1824
▁lays	-1825
▁pack	-1826
▁ribb	-1827
▁rubb	-1828
▁sail	-1829
▁seen	-1830
▁talk	-1831
▁terr	-1832
▁athle	-1833
▁blows	-1834
▁cloud	-1835
▁leans	-1836
▁pract	-1837
▁races	-1838
▁refle	-1839
▁shoot	-1840
▁signs	-1841
▁these	-1842
▁wings	-1843
▁facing	-1844
▁mother	-1845
▁shaggy	-1846
▁goggles	-1847
▁officer	-1848
▁policem	-1849
▁puppies	-1850
▁spotted	-1851
▁bandanna	-1852
▁unicycle	-1853
▁handstand	-1854
▁sprinkler	-1855
▁staircase	-1856
az	-1857
ek	-1858
nic	-1859
oke	-1860
per	-1861
ser	-1862
ton	-1863
urn	-1864
▁ce	-1865
dies	-1866
ides	-1867
izon	-1868
lane	-1869
olin	-1870
pend	-1871
quet	-1872
stru	-1873
▁cla	-1874
▁din	-1875
▁fan	-1876
▁fig	-1877
▁sea	-1878
▁try	-1879
apped	-1880
flage	-1881
ticip	-1882
wards	-1883
▁atop	-1884
▁beer	-1885
▁lies	-1886
▁soft	-1887
▁stop	-1888
▁break	-1889
▁camou	-1890
▁clown	-1891
▁coats	-1892
▁dribb	-1893
▁fetch	-1894
▁frame	-1895
▁reads	-1896
▁ropes	-1897
▁tatto	-1898
▁third	-1899
▁vests	-1900
▁enjoys	-1901
▁filled	-1902
▁friend	-1903
▁giving	-1904
▁grocer	-1905
▁paddle	-1906
▁raises	-1907
▁rapids	-1908
▁violin	-1909
▁catcher	-1910
▁coaster	-1911
▁constru	-1912
▁follows	-1913
▁gymnast	-1914
▁jerseys	-1915
▁machine	-1916
▁paddles	-1917
▁passing	-1918
▁writing	-1919
▁audience	-1920
▁cyclists	-1921
▁military	-1922
▁opposing	-1923
▁reaching	-1924
▁splashed	-1925
▁balancing	-1926
▁camouflage	-1927
▁snowmobile	-1928
▁construction	-1929
▁rollerblading	-1930
cy	-1931
og	-1932
so	-1933
eds	-1934
gle	-1935
ics	-1936
ise	-1937
lax	-1938
ric	-1939
tes	-1940
uet	-1941
zen	-1942
▁im	-1943
iffe	-1944
item	-1945
rope	-1946
ured	-1947
▁but	-1948
▁cas	-1949
▁den	-1950
▁eat	-1951
▁ent	-1952
▁gar	-1953
▁jun	-1954
▁pig	-1955
▁raf	-1956
▁sus	-1957
adium	-1958
house	-1959
iding	-1960
ility	-1961
lders	-1962
place	-1963
▁beam	-1964
▁desc	-1965
▁dire	-1966
▁emer	-1967
▁fair	-1968
▁fake	-1969
▁hose	-1970
▁item	-1971
▁part	-1972
▁shov	-1973
▁stud	-1974
▁swan	-1975
▁bound	-1976
▁chain	-1977
▁cones	-1978
▁cream	-1979
▁diffe	-1980
▁gives	-1981
▁lined	-1982
▁music	-1983
▁relax	-1984
▁rests	-1985
▁sharp	-1986
▁stump	-1987
▁surfs	-1988
▁teamm	-1989
▁branch	-1990
▁driver	-1991
▁figure	-1992
▁frozen	-1993
▁goalie	-1994
▁grinds	-1995
▁jockey	-1996
▁laughs	-1997
▁picnic	-1998
▁pillow	-1999
▁shadow	-2000
▁worker	-2001
▁barrier	-2002
▁country	-2003
▁horizon	-2004
▁practic	-2005
▁stadium	-2006
▁suspend	-2007
▁terrain	-2008
▁wrapped	-2009
▁climbers	-2010
▁kayaking	-2011
▁alongside	-2012
▁crosswalk	-2013
▁different	-2014
▁motorbike	-2015
▁newspaper	-2016
▁retriever	-2017
▁bicyclists	-2018
▁wheelchair	-2019
▁mountainside	-2020
ee	-2021
go	-2022
of	-2023
ra	-2024
▁z	-2025
ars	-2026
bat	-2027
bow	-2028
clo	-2029
ens	-2030
ilt	-2031
mer	-2032
ved	-2033
▁da	-2034
▁gl	-2035
aged	-2036
apan	-2037
erry	-2038
ites	-2039
ring	-2040
tico	-2041
ular	-2042
▁aqu	-2043
▁beg	-2044
▁dro	-2045
▁fly	-2046
▁how	-2047
▁lab	-2048
▁lay	-2049
▁pet	-2050
▁tie	-2051
ickly	-2052
▁bank	-2053
▁cave	-2054
▁curb	-2055
▁drum	-2056
▁gall	-2057
▁half	-2058
▁hike	-2059
▁knit	-2060
▁leas	-2061
▁made	-2062
▁mess	-2063
▁paws	-2064
▁post	-2065
▁says	-2066
▁spar	-2067
▁tail	-2068
▁what	-2069
eather	-2070
▁amuse	-2071
▁beads	-2072
▁chase	-2073
▁chews	-2074
▁cloth	-2075
▁denim	-2076
▁funny	-2077
▁japan	-2078
▁point	-2079
▁smoke	-2080
▁where	-2081
▁bounce	-2082
▁boxing	-2083
▁comput	-2084
▁ladies	-2085
▁larger	-2086
▁medium	-2087
▁rowing	-2088
▁rubber	-2089
▁shakes	-2090
▁shaved	-2091
▁though	-2092
▁gallery	-2093
▁grocery	-2094
▁hallway	-2095
▁helmets	-2096
▁indoors	-2097
▁jogging	-2098
▁multico	-2099
▁quickly	-2100
▁resting	-2101
▁showing	-2102
▁workers	-2103
▁airplane	-2104
▁balloons	-2105
▁elephant	-2106
▁hillside	-2107
▁japanese	-2108
▁opposite	-2109
▁vehicles	-2110
▁amusement	-2111
▁competing	-2112
▁decorated	-2113
▁foreground	-2114
▁practicing	-2115
▁photographer	-2116
cl	-2117
me	-2118
ang	-2119
aul	-2120
ely	-2121
int	-2122
oda	-2123
usk	-2124
val	-2125
wel	-2126
▁ic	-2127
alls	-2128
cony	-2129
dles	-2130
ffee	-2131
inis	-2132
land	-2133
tail	-2134
▁ble	-2135
▁cro	-2136
▁cut	-2137
▁fle	-2138
▁pan	-2139
▁pee	-2140
▁sec	-2141
▁sum	-2142
▁vis	-2143
estri	-2144
houet	-2145
ident	-2146
stage	-2147
▁also	-2148
▁arts	-2149
▁bite	-2150
▁boot	-2151
▁cape	-2152
▁cold	-2153
▁disc	-2154
▁embr	-2155
▁farm	-2156
▁jean	-2157
▁jugg	-2158
▁knee	-2159
▁peak	-2160
▁pony	-2161
▁puts	-2162
▁soda	-2163
▁swor	-2164
ashing	-2165
illing	-2166
▁appro	-2167
▁bever	-2168
▁chest	-2169
▁elect	-2170
▁enclo	-2171
▁falls	-2172
▁inter	-2173
▁plate	-2174
▁scene	-2175
▁sized	-2176
▁strip	-2177
▁tight	-2178
▁tires	-2179
▁barrel	-2180
▁closed	-2181
▁coffee	-2182
▁flight	-2183
▁floats	-2184
▁formal	-2185
▁huddle	-2186
▁jungle	-2187
▁kneels	-2188
▁muzzle	-2189
▁pulled	-2190
▁screen	-2191
▁shaped	-2192
▁skiers	-2193
▁animals	-2194
▁balcony	-2195
▁counter	-2196
▁crosses	-2197
▁helping	-2198
▁himself	-2199
▁landing	-2200
▁reaches	-2201
▁walkway	-2202
▁watched	-2203
▁branches	-2204
▁brightly	-2205
▁covering	-2206
▁downhill	-2207
▁particip	-2208
▁silhouet	-2209
▁waterski	-2210
▁direction	-2211
▁policeman	-2212
▁preparing	-2213
▁umbrellas	-2214
▁retrieving	-2215
▁instruments	-2216
▁cheerleaders	-2217
ma	-2218
za	-2219
awn	-2220
ggy	-2221
ied	-2222
ken	-2223
niv	-2224
oks	-2225
▁tw	-2226
eath	-2227
eree	-2228
ible	-2229
icro	-2230
room	-2231
stro	-2232
vert	-2233
▁blo	-2234
▁bur	-2235
▁ext	-2236
▁num	-2237
▁pac	-2238
▁var	-2239
awing	-2240
count	-2241
dress	-2242
inned	-2243
light	-2244
nival	-2245
pless	-2246
▁cand	-2247
▁cook	-2248
▁doll	-2249
▁foam	-2250
▁leaf	-2251
▁lots	-2252
▁meet	-2253
▁only	-2254
▁pair	-2255
▁pian	-2256
▁pier	-2257
▁slee	-2258
▁tool	-2259
▁warm	-2260
achers	-2261
inning	-2262
▁apron	-2263
▁bunny	-2264
▁cheek	-2265
▁class	-2266
▁drive	-2267
▁flips	-2268
▁flock	-2269
▁flute	-2270
▁fruit	-2271
▁micro	-2272
▁mound	-2273
▁moves	-2274
▁mural	-2275
▁peace	-2276
▁prote	-2277
▁reach	-2278
▁seven	-2279
▁shown	-2280
▁sport	-2281
country	-2282
▁biking	-2283
▁broken	-2284
▁chased	-2285
▁comple	-2286
▁crawls	-2287
▁inline	-2288
▁jumped	-2289
▁lights	-2290
▁makeup	-2291
▁neckla	-2292
▁plants	-2293
▁riders	-2294
▁tackle	-2295
▁beneath	-2296
▁doorway	-2297
▁fingers	-2298
▁forward	-2299
▁hitting	-2300
▁picking	-2301
▁pouring	-2302
▁rainbow	-2303
▁referee	-2304
▁surfers	-2305
▁without	-2306
▁carnival	-2307
▁computer	-2308
▁crouches	-2309
▁enjoying	-2310
▁fetching	-2311
▁flowered	-2312
▁kneeling	-2313
▁marching	-2314
▁overalls	-2315
▁softball	-2316
▁stroller	-2317
▁teammate	-2318
▁teenager	-2319
▁tricycle	-2320
▁bleachers	-2321
▁crouching	-2322
▁following	-2323
▁parachute	-2324
▁shoulders	-2325
▁suspended	-2326
▁teenagers	-2327
▁underwear	-2328
▁microphone	-2329
▁photographs	-2330
▁surrounding	-2331
▁rollerblader	-2332
fe	-2333
mp	-2334
pt	-2335
aps	-2336
bed	-2337
cts	-2338
ets	-2339
gee	-2340
lit	-2341
rid	-2342
ulp	-2343
ames	-2344
cers	-2345
cial	-2346
icle	-2347
irro	-2348
ited	-2349
keep	-2350
pped	-2351
uses	-2352
▁fun	-2353
▁jet	-2354
▁kar	-2355
▁lit	-2356
▁mug	-2357
▁pir	-2358
▁see	-2359
alley	-2360
apers	-2361
ature	-2362
bered	-2363
ifier	-2364
locks	-2365
omach	-2366
urity	-2367
▁aqua	-2368
▁bend	-2369
▁bill	-2370
▁bone	-2371
▁case	-2372
▁cast	-2373
▁cats	-2374
▁cows	-2375
▁dalm	-2376
▁digs	-2377
▁dish	-2378
▁dusk	-2379
▁fold	-2380
▁gate	-2381
▁hang	-2382
▁help	-2383
▁kite	-2384
▁kitt	-2385
▁laun	-2386
▁lift	-2387
▁mini	-2388
▁move	-2389
▁palm	-2390
▁port	-2391
▁shin	-2392
▁supp	-2393
▁yawn	-2394
ection	-2395
headed	-2396
vertis	-2397
▁bites	-2398
▁boats	-2399
▁colle	-2400
▁curve	-2401
▁dread	-2402
▁foggy	-2403
▁happy	-2404
▁heavy	-2405
▁hikes	-2406
▁hoops	-2407
▁image	-2408
▁leads	-2409
▁merry	-2410
▁mirro	-2411
▁owner	-2412
▁piano	-2413
▁pitch	-2414
▁place	-2415
▁plant	-2416
▁pulls	-2417
▁range	-2418
▁sculp	-2419
▁skull	-2420
▁spark	-2421
▁thumb	-2422
▁trash	-2423
▁winds	-2424
▁artist	-2425
▁attire	-2426
▁blurry	-2427
▁bushes	-2428
▁clouds	-2429
▁father	-2430
▁indian	-2431
▁karate	-2432
▁marker	-2433
▁passes	-2434
▁pushes	-2435
▁return	-2436
▁shower	-2437
▁skater	-2438
▁string	-2439
▁tracks	-2440
▁travel	-2441
▁camping	-2442
▁contain	-2443
▁happily	-2444
▁leashes	-2445
▁muzzled	-2446
▁muzzles	-2447
▁onstage	-2448
▁sandals	-2449
▁stomach	-2450
▁swimmer	-2451
▁topless	-2452
▁tossing	-2453
▁advertis	-2454
▁beverage	-2455
▁boarding	-2456
▁bouncing	-2457
▁crashing	-2458
▁dribbles	-2459
▁numbered	-2460
▁pacifier	-2461
▁pedestri	-2462
▁ponytail	-2463
▁security	-2464
▁touching	-2465
▁wrestler	-2466
▁cardboard	-2467
▁sculpture	-2468
▁uniformed	-2469
▁dreadlocks	-2470
▁cheerleader	-2471
▁waterskiing	-2472
eu	-2473
ia	-2474
ns	-2475
▁i	-2476
den	-2477
die	-2478
fro	-2479
ged	-2480
ilo	-2481
key	-2482
med	-2483
ppy	-2484
que	-2485
tle	-2486
ual	-2487
uba	-2488
udy	-2489
urf	-2490
urs	-2491
aken	-2492
anta	-2493
bank	-2494
esti	-2495
fore	-2496
hood	-2497
iger	-2498
ikes	-2499
ipes	-2500
ivid	-2501
leep	-2502
most	-2503
ried	-2504
ston	-2505
umps	-2506
very	-2507
ways	-2508
▁dob	-2509
▁far	-2510
▁ges	-2511
▁gun	-2512
▁hus	-2513
▁pen	-2514
▁pow	-2515
▁rob	-2516
▁scr	-2517
▁tab	-2518
▁tag	-2519
endor	-2520
first	-2521
front	-2522
gings	-2523
ister	-2524
neath	-2525
otard	-2526
scarf	-2527
▁aged	-2528
▁bagp	-2529
▁bowl	-2530
▁dead	-2531
▁flat	-2532
▁hugs	-2533
▁inte	-2534
▁mass	-2535
▁plan	-2536
▁pret	-2537
▁quar	-2538
▁slip	-2539
▁smok	-2540
▁thin	-2541
▁time	-2542
▁well	-2543
barrow	-2544
reline	-2545
selves	-2546
stroke	-2547
▁ahead	-2548
▁alone	-2549
▁booth	-2550
▁camel	-2551
▁eight	-2552
▁explo	-2553
▁fancy	-2554
▁first	-2555
▁glove	-2556
▁maneu	-2557
▁mouse	-2558
▁multi	-2559
▁obser	-2560
▁oppon	-2561
▁paras	-2562
▁ridge	-2563
▁rolls	-2564
▁santa	-2565
▁scuba	-2566
▁shade	-2567
▁shows	-2568
▁spots	-2569
▁stars	-2570
▁stool	-2571
▁taken	-2572
▁tiger	-2573
▁touch	-2574
▁whist	-2575
resting	-2576
▁almost	-2577
▁apples	-2578
▁asleep	-2579
▁before	-2580
▁blocks	-2581
▁bungee	-2582
▁camels	-2583
▁collie	-2584
▁daught	-2585
▁device	-2586
▁kiddie	-2587
▁kisses	-2588
▁laptop	-2589
▁monkey	-2590
▁motion	-2591
▁narrow	-2592
▁pirate	-2593
▁ribbon	-2594
▁squirt	-2595
▁stares	-2596
▁swords	-2597
▁thumbs	-2598
▁uphill	-2599
▁valley	-2600
▁vendor	-2601
▁agility	-2602
▁benches	-2603
▁bikinis	-2604
▁brother	-2605
▁compete	-2606
▁embrace	-2607
▁females	-2608
▁herself	-2609
▁jockeys	-2610
▁leotard	-2611
▁racquet	-2612
▁streets	-2613
▁stretch	-2614
▁stripes	-2615
▁terrier	-2616
▁turning	-2617
▁various	-2618
▁balances	-2619
▁breaking	-2620
▁doberman	-2621
▁flipping	-2622
▁followed	-2623
▁necklace	-2624
▁shooting	-2625
▁sniffing	-2626
▁snowball	-2627
▁stairway	-2628
▁students	-2629
▁windsurf	-2630
▁backwards	-2631
▁boardwalk	-2632
▁fireplace	-2633
▁harnesses	-2634
▁headfirst	-2635
▁headscarf	-2636
▁shoreline	-2637
▁tightrope	-2638
▁sprinklers	-2639
▁themselves	-2640
▁underneath	-2641
▁multicolored	-2642
fa	-2643
sk	-2644
th	-2645
ami	-2646
emb	-2647
erb	-2648
gon	-2649
ino	-2650
iqu	-2651
jam	-2652
lly	-2653
mes	-2654
ops	-2655
sso	-2656
umn	-2657
yle	-2658
yon	-2659
ype	-2660
▁mi	-2661
acks	-2662
adow	-2663
ambo	-2664
cent	-2665
dder	-2666
eled	-2667
ersk	-2668
esma	-2669
hand	-2670
iage	-2671
iant	-2672
ilar	-2673
iled	-2674
itor	-2675
late	-2676
lebr	-2677
like	-2678
orch	-2679
road	-2680
wood	-2681
▁adm	-2682
▁aut	-2683
▁cho	-2684
▁eng	-2685
▁exc	-2686
▁fab	-2687
▁hut	-2688
▁lun	-2689
▁res	-2690
▁rus	-2691
▁sat	-2692
▁ser	-2693
▁sim	-2694
▁sup	-2695
▁tul	-2696
▁you	-2697
allel	-2698
andel	-2699
entle	-2700
ering	-2701
inese	-2702
jamas	-2703
stick	-2704
ument	-2705
wheel	-2706
▁acro	-2707
▁amid	-2708
▁arch	-2709
▁bean	-2710
▁cafe	-2711
▁cage	-2712
▁cups	-2713
▁cush	-2714
▁elev	-2715
▁free	-2716
▁garb	-2717
▁kilt	-2718
▁lead	-2719
▁link	-2720
▁lugg	-2721
▁memb	-2722
▁musc	-2723
▁neon	-2724
▁pine	-2725
▁sofa	-2726
▁spid	-2727
▁trot	-2728
▁type	-2729
▁vaul	-2730
▁wild	-2731
▁wine	-2732
ighbor	-2733
ipping	-2734
tially	-2735
▁alley	-2736
▁comes	-2737
▁every	-2738
▁festi	-2739
▁groom	-2740
▁hills	-2741
▁ident	-2742
▁knees	-2743
▁lines	-2744
▁miami	-2745
▁patio	-2746
▁piggy	-2747
▁porch	-2748
▁pours	-2749
▁print	-2750
▁rings	-2751
▁robes	-2752
▁sheer	-2753
▁sides	-2754
▁spout	-2755
▁stare	-2756
▁stuck	-2757
▁turns	-2758
▁wagon	-2759
▁action	-2760
▁batman	-2761
▁boston	-2762
▁celebr	-2763
▁cloudy	-2764
▁colors	-2765
▁fabric	-2766
▁fishes	-2767
▁gentle	-2768
▁inters	-2769
▁ladder	-2770
▁mirror	-2771
▁racers	-2772
▁ridden	-2773
▁scales	-2774
▁shovel	-2775
▁slight	-2776
▁smokes	-2777
▁sniffs	-2778
▁speeds	-2779
▁tattoo	-2780
▁wheels	-2781
▁attempt	-2782
▁balance	-2783
▁barking	-2784
▁chinese	-2785
▁cushion	-2786
▁drawing	-2787
▁emerges	-2788
▁feather	-2789
▁foliage	-2790
▁gesture	-2791
▁individ	-2792
▁kayaker	-2793
▁licking	-2794
▁luggage	-2795
▁numbers	-2796
▁pajamas	-2797
▁peeking	-2798
▁quarter	-2799
▁rafting	-2800
▁raising	-2801
▁ribbons	-2802
▁sprayed	-2803
▁visible	-2804
▁working	-2805
▁yawning	-2806
▁bridesma	-2807
▁daughter	-2808
▁enclosed	-2809
▁machines	-2810
▁monument	-2811
▁neighbor	-2812
▁opponent	-2813
▁parallel	-2814
▁position	-2815
▁rollersk	-2816
▁sideways	-2817
▁sledding	-2818
▁sweaters	-2819
▁woodland	-2820
▁headdress	-2821
▁overlooks	-2822
▁partially	-2823
▁retrieves	-2824
▁sparklers	-2825
▁stretched	-2826
▁backstroke	-2827
▁gymnastics	-2828
▁protective	-2829
▁reflection	-2830
▁countryside	-2831
▁interesting	-2832
▁mountaintop	-2833
▁participate	-2834
▁silhouetted	-2835
▁wheelbarrow	-2836
▁intersection	-2837
▁neighborhood	-2838
ka	-2839
tu	-2840
aft	-2841
cro	-2842
hom	-2843
ife	-2844
kla	-2845
mon	-2846
ous	-2847
rol	-2848
ues	-2849
uis	-2850
unk	-2851
xed	-2852
▁ge	-2853
▁ma	-2854
ared	-2855
clud	-2856
cond	-2857
cope	-2858
dogs	-2859
ells	-2860
ette	-2861
homa	-2862
ians	-2863
ield	-2864
iers	-2865
iver	-2866
oney	-2867
ored	-2868
pass	-2869
sion	-2870
ster	-2871
tube	-2872
uals	-2873
urky	-2874
work	-2875
▁aer	-2876
▁ass	-2877
▁atm	-2878
▁bou	-2879
▁ela	-2880
▁fog	-2881
▁gaz	-2882
▁gon	-2883
▁inf	-2884
▁loc	-2885
▁nat	-2886
▁nav	-2887
▁piz	-2888
▁ran	-2889
▁sal	-2890
▁sel	-2891
▁ske	-2892
▁tub	-2893
▁van	-2894
annel	-2895
aying	-2896
batic	-2897
ening	-2898
fight	-2899
ickey	-2900
iquid	-2901
kings	-2902
orted	-2903
tical	-2904
urful	-2905
useum	-2906
ustom	-2907
▁bent	-2908
▁brun	-2909
▁cake	-2910
▁camp	-2911
▁flex	-2912
▁give	-2913
▁goat	-2914
▁grow	-2915
▁jack	-2916
▁keep	-2917
▁leag	-2918
▁love	-2919
▁meal	-2920
▁most	-2921
▁navy	-2922
▁okla	-2923
▁pads	-2924
▁pale	-2925
▁pops	-2926
▁poun	-2927
▁rear	-2928
▁rece	-2929
▁rink	-2930
▁robe	-2931
▁scar	-2932
▁shel	-2933
▁stra	-2934
▁tape	-2935
▁tele	-2936
▁tops	-2937
▁trad	-2938
ailing	-2939
astern	-2940
borate	-2941
▁apart	-2942
▁belon	-2943
▁boxer	-2944
▁carry	-2945
▁coach	-2946
▁drain	-2947
▁drums	-2948
▁enjoy	-2949
▁giant	-2950
▁husky	-2951
▁lasso	-2952
▁licks	-2953
▁marsh	-2954
▁money	-2955
▁murky	-2956
▁opens	-2957
▁parka	-2958
▁peach	-2959
▁polka	-2960
▁power	-2961
▁rails	-2962
▁recor	-2963
▁shops	-2964
▁snake	-2965
▁space	-2966
▁spins	-2967
▁stall	-2968
▁still	-2969
▁teles	-2970
▁tents	-2971
▁toile	-2972
▁trans	-2973
▁treat	-2974
▁weeds	-2975
itional	-2976
▁amidst	-2977
▁barren	-2978
▁begins	-2979
▁bicycl	-2980
▁canoes	-2981
▁custom	-2982
▁dalmat	-2983
▁dollar	-2984
▁flames	-2985
▁houses	-2986
▁includ	-2987
▁liquid	-2988
▁meadow	-2989
▁mickey	-2990
▁museum	-2991
▁second	-2992
▁singer	-2993
▁single	-2994
▁sleeps	-2995
▁soaked	-2996
▁tables	-2997
▁tulips	-2998
▁athlete	-2999
▁blurred	-3000
▁bottles	-3001
▁cooking	-3002
▁croquet	-3003
▁crossed	-3004
▁flannel	-3005
▁friends	-3006
▁hurdles	-3007
▁meeting	-3008
▁opening	-3009
▁pitcher	-3010
▁similar	-3011
▁skaters	-3012
▁soaking	-3013
▁tattoos	-3014
▁touches	-3015
▁bathroom	-3016
▁brunette	-3017
▁crawling	-3018
▁dragging	-3019
▁driveway	-3020
▁electron	-3021
▁festival	-3022
▁floating	-3023
▁homeless	-3024
▁markings	-3025
▁officers	-3026
▁oklahoma	-3027
▁overhead	-3028
▁overpass	-3029
▁parachut	-3030
▁relaxing	-3031
▁slightly	-3032
▁snowbank	-3033
▁speaking	-3034
▁sunlight	-3035
▁training	-3036
▁vertical	-3037
▁colourful	-3038
▁elaborate	-3039
▁redheaded	-3040
▁stretches	-3041
▁strollers	-3042
▁swimsuits	-3043
▁telescope	-3044
▁instrument	-3045
▁waterfalls	-3046
▁waterskier	-3047
▁bridesmaids	-3048
▁motorcycles	-3049
▁traditional	-3050
▁photographed	-3051
▁wakeboarding	-3052
bs	-3053
cc	-3054
ci	-3055
fo	-3056
hd	-3057
ms	-3058
nn	-3059
ama	-3060
bag	-3061
bul	-3062
can	-3063
cod	-3064
cut	-3065
eak	-3066
een	-3067
esh	-3068
gre	-3069
hak	-3070
let	-3071
lig	-3072
lor	-3073
lph	-3074
men	-3075
ott	-3076
phy	-3077
quo	-3078
ral	-3079
tal	-3080
tub	-3081
uch	-3082
utu	-3083
▁ox	-3084
▁su	-3085
ages	-3086
agle	-3087
bing	-3088
cade	-3089
dish	-3090
fold	-3091
gers	-3092
girl	-3093
ific	-3094
iler	-3095
inat	-3096
ints	-3097
lics	-3098
ners	-3099
ogie	-3100
pain	-3101
rida	-3102
scue	-3103
tain	-3104
ters	-3105
test	-3106
used	-3107
▁act	-3108
▁asc	-3109
▁bel	-3110
▁bor	-3111
▁cot	-3112
▁dim	-3113
▁dot	-3114
▁eas	-3115
▁fat	-3116
▁foc	-3117
▁gey	-3118
▁ham	-3119
▁icy	-3120
▁lam	-3121
▁mom	-3122
▁ori	-3123
▁pud	-3124
▁reg	-3125
▁rot	-3126
▁sax	-3127
▁sla	-3128
▁tor	-3129
▁tow	-3130
▁was	-3131
▁wea	-3132
achsh	-3133
aling	-3134
ative	-3135
ental	-3136
enter	-3137
irrel	-3138
ither	-3139
ivers	-3140
leton	-3141
lphin	-3142
melon	-3143
oming	-3144
rents	-3145
riger	-3146
rings	-3147
tyard	-3148
using	-3149
where	-3150
▁bonn	-3151
▁bush	-3152
▁caut	-3153
▁chur	-3154
▁clad	-3155
▁clut	-3156
▁dust	-3157
▁fist	-3158
▁heav	-3159
▁jogs	-3160
▁khak	-3161
▁logo	-3162
▁mitt	-3163
▁poss	-3164
▁pres	-3165
▁roof	-3166
▁seal	-3167
▁sets	-3168
▁ship	-3169
▁skin	-3170
▁sold	-3171
▁thre	-3172
▁tink	-3173
▁tour	-3174
▁town	-3175
▁trav	-3176
▁trip	-3177
▁turb	-3178
▁tutu	-3179
▁wand	-3180
▁worn	-3181
ashion	-3182
atting	-3183
codile	-3184
eakers	-3185
ention	-3186
erbell	-3187
flated	-3188
ically	-3189
igator	-3190
inging	-3191
quoise	-3192
▁ambul	-3193
▁blind	-3194
▁candy	-3195
▁colla	-3196
▁devil	-3197
▁doors	-3198
▁fairy	-3199
▁geese	-3200
▁grabs	-3201
▁helps	-3202
▁inner	-3203
▁items	-3204
▁kites	-3205
▁kitty	-3206
▁knife	-3207
▁lands	-3208
▁leafy	-3209
▁masks	-3210
▁navig	-3211
▁noses	-3212
▁obama	-3213
▁overh	-3214
▁pairs	-3215
▁patch	-3216
▁pizza	-3217
▁plank	-3218
▁plaza	-3219
▁pokes	-3220
▁posed	-3221
▁relig	-3222
▁sings	-3223
▁spons	-3224
▁stock	-3225
▁strap	-3226
▁style	-3227
▁towel	-3228
▁trump	-3229
▁tuxed	-3230
ificial	-3231
wheeler	-3232
▁arcade	-3233
▁autumn	-3234
▁beagle	-3235
▁beanie	-3236
▁boogie	-3237
▁bounds	-3238
▁canyon	-3239
▁circle	-3240
▁cliffs	-3241
▁clowns	-3242
▁crowds	-3243
▁dachsh	-3244
▁dancer	-3245
▁dandel	-3246
▁dinner	-3247
▁folded	-3248
▁frames	-3249
▁geyser	-3250
▁hallow	-3251
▁handic	-3252
▁handle	-3253
▁hiding	-3254
▁infant	-3255
▁league	-3256
▁living	-3257
▁marked	-3258
▁mobile	-3259
▁mostly	-3260
▁office	-3261
▁outcro	-3262
▁passen	-3263
▁pointy	-3264
▁record	-3265
▁rescue	-3266
▁saying	-3267
▁scream	-3268
▁skirts	-3269
▁sprays	-3270
▁tossed	-3271
▁tosses	-3272
▁trains	-3273
▁trophy	-3274
▁trucks	-3275
▁turned	-3276
▁waiter	-3277
▁within	-3278
▁bathtub	-3279
▁buckets	-3280
▁cameras	-3281
▁carried	-3282
▁ceiling	-3283
▁circuit	-3284
▁collars	-3285
▁college	-3286
▁convers	-3287
▁curious	-3288
▁curtain	-3289
▁dancers	-3290
▁distant	-3291
▁dolphin	-3292
▁dunking	-3293
▁eastern	-3294
▁excited	-3295
▁express	-3296
▁florida	-3297
▁frolics	-3298
▁garbage	-3299
▁herding	-3300
▁highway	-3301
▁juggles	-3302
▁leaving	-3303
▁massage	-3304
▁natural	-3305
▁playpen	-3306
▁protest	-3307
▁reddish	-3308
▁relaxes	-3309
▁returns	-3310
▁scarves	-3311
▁singing	-3312
▁skinned	-3313
▁sleeved	-3314
▁strange	-3315
▁wheelie	-3316
rigerator	-3317
▁athletic	-3318
▁bicycler	-3319
▁carpeted	-3320
▁checking	-3321
▁corndogs	-3322
▁deflated	-3323
▁drilling	-3324
▁dropping	-3325
▁earrings	-3326
▁forested	-3327
▁grabbing	-3328
▁growling	-3329
▁hardwood	-3330
▁interact	-3331
▁juggling	-3332
▁lighting	-3333
▁maneuver	-3334
▁oriental	-3335
▁skeleton	-3336
▁sneakers	-3337
▁spinning	-3338
▁squirrel	-3339
▁starting	-3340
▁straight	-3341
▁superman	-3342
▁toddlers	-3343
▁trotting	-3344
▁watering	-3345
▁acrobatic	-3346
▁ambulance	-3347
▁blindfold	-3348
▁checkered	-3349
▁container	-3350
▁courtyard	-3351
▁crocodile	-3352
▁dachshund	-3353
▁dandelion	-3354
▁dribbling	-3355
▁explosion	-3356
▁gathering	-3357
▁gentleman	-3358
▁halloween	-3359
▁identical	-3360
▁including	-3361
▁innertube	-3362
▁miniature	-3363
▁performer	-3364
▁playhouse	-3365
▁religious	-3366
▁spiderman	-3367
▁telephone	-3368
▁traveling	-3369
▁artificial	-3370
▁belongings	-3371
▁descending	-3372
▁everywhere	-3373
▁horizontal	-3374
▁newspapers	-3375
▁possession	-3376
▁pretending	-3377
▁tinkerbell	-3378
▁watermelon	-3379
▁advertising	-3380
▁approaching	-3381
▁individuals	-3382
▁marketplace	-3383
▁pedestrians	-3384
▁quarterback	-3385
▁refrigerator	-3386
▁photographers	-3387
hy	-3388
ik	-3389
na	-3390
oo	-3391
po	-3392
su	-3393
uc	-3394
vo	-3395
wh	-3396
yn	-3397
▁-	-3398
alt	-3399
ara	-3400
awl	-3401
box	-3402
cra	-3403
for	-3404
hat	-3405
hib	-3406
ico	-3407
ina	-3408
iod	-3409
loo	-3410
mit	-3411
oga	-3412
olf	-3413
oon	-3414
opy	-3415
ork	-3416
ris	-3417
riz	-3418
tur	-3419
zer	-3420
▁aw	-3421
▁eu	-3422
▁gn	-3423
▁ig	-3424
▁ju	-3425
▁rv	-3426
▁vu	-3427
aded	-3428
aker	-3429
aman	-3430
amer	-3431
anas	-3432
aris	-3433
bble	-3434
brad	-3435
bull	-3436
cted	-3437
emon	-3438
erty	-3439
gged	-3440
ghts	-3441
ills	-3442
ires	-3443
ison	-3444
itch	-3445
oned	-3446
roon	-3447
sing	-3448
ssle	-3449
stal	-3450
sued	-3451
sure	-3452
time	-3453
uman	-3454
uzzy	-3455
wear	-3456
▁adv	-3457
▁aim	-3458
▁awn	-3459
▁bay	-3460
▁bin	-3461
▁bra	-3462
▁bug	-3463
▁bul	-3464
▁cal	-3465
▁def	-3466
▁dep	-3467
▁dod	-3468
▁dom	-3469
▁fil	-3470
▁gas	-3471
▁hun	-3472
▁inc	-3473
▁inj	-3474
▁jag	-3475
▁lib	-3476
▁lie	-3477
▁min	-3478
▁nap	-3479
▁occ	-3480
▁pot	-3481
▁rec	-3482
▁shr	-3483
▁tin	-3484
ament	-3485
apple	-3486
bones	-3487
craft	-3488
eding	-3489
emade	-3490
gress	-3491
hoops	-3492
ieval	-3493
immed	-3494
inata	-3495
iness	-3496
ining	-3497
iring	-3498
itton	-3499
phalt	-3500
riers	-3501
water	-3502
welry	-3503
white	-3504
works	-3505
▁anci	-3506
▁army	-3507
▁attr	-3508
▁been	-3509
▁cans	-3510
▁caps	-3511
▁care	-3512
▁cash	-3513
▁chop	-3514
▁clay	-3515
▁crev	-3516
▁ener	-3517
▁feat	-3518
▁flee	-3519
▁fort	-3520
▁good	-3521
▁gown	-3522
▁hump	-3523
▁lips	-3524
▁list	-3525
▁logs	-3526
▁lush	-3527
▁mans	-3528
▁mesh	-3529
▁mets	-3530
▁more	-3531
▁need	-3532
▁obsc	-3533
▁oper	-3534
▁pilo	-3535
▁polo	-3536
▁rabb	-3537
▁rust	-3538
▁saxo	-3539
▁seem	-3540
▁soon	-3541
▁sort	-3542
▁suck	-3543
▁tarp	-3544
▁teal	-3545
▁tumb	-3546
▁twig	-3547
▁wade	-3548
▁wool	-3549
▁yoga	-3550
boards	-3551
capped	-3552
colate	-3553
coming	-3554
crosse	-3555
ersaul	-3556
filled	-3557
shirts	-3558
sticks	-3559
terned	-3560
turned	-3561
wheels	-3562
▁alike	-3563
▁bares	-3564
▁barks	-3565
▁bloss	-3566
▁boxes	-3567
▁brush	-3568
▁buses	-3569
▁camps	-3570
▁chaps	-3571
▁chick	-3572
▁crane	-3573
▁demon	-3574
▁ditch	-3575
▁dried	-3576
▁ducks	-3577
▁dunks	-3578
▁exhib	-3579
▁fuzzy	-3580
▁games	-3581
▁gazes	-3582
▁great	-3583
▁grins	-3584
▁heels	-3585
▁hello	-3586
▁human	-3587
▁igloo	-3588
▁juice	-3589
▁khaki	-3590
▁lambs	-3591
▁louis	-3592
▁lower	-3593
▁males	-3594
▁midst	-3595
▁mount	-3596
▁order	-3597
▁peeks	-3598
▁pumps	-3599
▁rafts	-3600
▁rainy	-3601
▁salon	-3602
▁score	-3603
▁scrat	-3604
▁seeds	-3605
▁shawl	-3606
▁sheet	-3607
▁snack	-3608
▁split	-3609
▁start	-3610
▁stops	-3611
▁swans	-3612
▁tools	-3613
▁tourn	-3614
▁upper	-3615
uggling	-3616
▁active	-3617
▁aerial	-3618
▁assist	-3619
▁banner	-3620
▁barbed	-3621
▁baring	-3622
▁bigger	-3623
▁boards	-3624
▁booths	-3625
▁border	-3626
▁bouncy	-3627
▁brooms	-3628
▁campus	-3629
▁canopy	-3630
▁casino	-3631
▁center	-3632
▁cheers	-3633
▁church	-3634
▁clings	-3635
▁combat	-3636
▁cookie	-3637
▁cotton	-3638
▁covers	-3639
▁crying	-3640
▁either	-3641
▁engage	-3642
▁europe	-3643
▁fellow	-3644
▁fights	-3645
▁floppy	-3646
▁floral	-3647
▁garter	-3648
▁hammer	-3649
▁icicle	-3650
▁jagged	-3651
▁kicked	-3652
▁kitten	-3653
▁labrad	-3654
▁lunges	-3655
▁maroon	-3656
▁papers	-3657
▁period	-3658
▁photos	-3659
▁pinata	-3660
▁plates	-3661
▁really	-3662
▁series	-3663
▁sheets	-3664
▁sister	-3665
▁skinny	-3666
▁speaks	-3667
▁stones	-3668
▁straps	-3669
▁strewn	-3670
▁strips	-3671
▁summit	-3672
▁things	-3673
▁transp	-3674
▁tripod	-3675
▁videot	-3676
▁warmly	-3677
entation	-3678
▁airport	-3679
▁asphalt	-3680
▁bagpipe	-3681
▁bananas	-3682
▁bending	-3683
▁bonnets	-3684
▁bounces	-3685
▁bucking	-3686
▁casting	-3687
▁caution	-3688
▁checked	-3689
▁control	-3690
▁fashion	-3691
▁fencing	-3692
▁fireman	-3693
▁flowery	-3694
▁folding	-3695
▁guitars	-3696
▁handles	-3697
▁headset	-3698
▁howling	-3699
▁injured	-3700
▁jewelry	-3701
▁liberty	-3702
▁members	-3703
▁musical	-3704
▁parents	-3705
▁patches	-3706
▁pathway	-3707
▁petting	-3708
▁pitbull	-3709
▁pounces	-3710
▁prepare	-3711
▁pursued	-3712
▁rowboat	-3713
▁rushing	-3714
▁sailing	-3715
▁selling	-3716
▁sharing	-3717
▁shining	-3718
▁shirted	-3719
▁skyline	-3720
▁soldier	-3721
▁special	-3722
▁spreads	-3723
▁trumpet	-3724
▁turbans	-3725
▁vuitton	-3726
▁weather	-3727
▁wheeled	-3728
▁wheeler	-3729
▁whistle	-3730
▁windows	-3731
▁athletes	-3732
▁bagpipes	-3733
▁bandaged	-3734
▁bounding	-3735
▁business	-3736
▁cheering	-3737
▁clearing	-3738
▁competit	-3739
▁complete	-3740
▁descends	-3741
▁electric	-3742
▁elevator	-3743
▁gestures	-3744
▁guarding	-3745
▁helmeted	-3746
▁homemade	-3747
▁horsesho	-3748
▁jumpsuit	-3749
▁lacrosse	-3750
▁medieval	-3751
▁muscular	-3752
▁observes	-3753
▁pitching	-3754
▁popsicle	-3755
▁sparring	-3756
▁squirted	-3757
▁strapped	-3758
▁striking	-3759
▁swimmers	-3760
▁tackling	-3761
▁alligator	-3762
▁attention	-3763
▁beginning	-3764
▁cameraman	-3765
▁carefully	-3766
▁chocolate	-3767
▁distorted	-3768
▁earphones	-3769
▁elephants	-3770
▁enclosure	-3771
▁fireworks	-3772
▁guitarist	-3773
▁motorized	-3774
▁paintings	-3775
▁policemen	-3776
▁shoveling	-3777
▁somersaul	-3778
▁sponsored	-3779
▁turquoise	-3780
▁approaches	-3781
▁backpacker	-3782
▁blindfolds	-3783
▁chopsticks	-3784
▁containing	-3785
▁crossbones	-3786
▁electronic	-3787
▁expression	-3788
▁formations	-3789
▁graffitied	-3790
▁greenhouse	-3791
▁passengers	-3792
▁pedestrian	-3793
▁reflective	-3794
▁silhouette	-3795
▁snowboards	-3796
▁stretching	-3797
▁tournament	-3798
▁watercraft	-3799
▁windsurfer	-3800
▁outcropping	-3801
▁parasailing	-3802
▁performance	-3803
▁snowmobiles	-3804
▁presentation	-3805
▁snowboarders	-3806
▁advertisement	-3807
▁rollerskating	-3808
▁skateboarders	-3809
du	-3810
ex	-3811
je	-3812
sw	-3813
ye	-3814
aga	-3815
agl	-3816
ble	-3817
cla	-3818
ebo	-3819
giz	-3820
ica	-3821
iel	-3822
ift	-3823
inj	-3824
ior	-3825
ord	-3826
ory	-3827
pel	-3828
ram	-3829
ude	-3830
viz	-3831
war	-3832
wom	-3833
▁ab	-3834
▁di	-3835
▁dj	-3836
▁el	-3837
▁if	-3838
▁py	-3839
▁ta	-3840
▁tv	-3841
aber	-3842
ache	-3843
ades	-3844
allo	-3845
amed	-3846
appy	-3847
body	-3848
brow	-3849
cept	-3850
chan	-3851
cked	-3852
coat	-3853
cour	-3854
ders	-3855
ects	-3856
eddy	-3857
ened	-3858
esus	-3859
flow	-3860
goon	-3861
greg	-3862
hday	-3863
icop	-3864
ider	-3865
igot	-3866
illy	-3867
ilor	-3868
ique	-3869
ises	-3870
isle	-3871
ital	-3872
ivan	-3873
jump	-3874
just	-3875
lick	-3876
lymp	-3877
nequ	-3878
noon	-3879
oked	-3880
outs	-3881
ples	-3882
rial	-3883
sman	-3884
tock	-3885
tops	-3886
ucky	-3887
unts	-3888
vine	-3889
ynch	-3890
▁acc	-3891
▁ado	-3892
▁ant	-3893
▁bad	-3894
▁bla	-3895
▁cob	-3896
▁cop	-3897
▁cry	-3898
▁cyc	-3899
▁dav	-3900
▁fin	-3901
▁fix	-3902
▁gor	-3903
▁lip	-3904
▁mel	-3905
▁mex	-3906
▁mis	-3907
▁mix	-3908
▁pas	-3909
▁pom	-3910
▁pop	-3911
▁pug	-3912
▁rag	-3913
▁sad	-3914
▁siz	-3915
▁son	-3916
▁sox	-3917
▁unh	-3918
▁web	-3919
▁wip	-3920
▁zip	-3921
acing	-3922
acked	-3923
ander	-3924
arent	-3925
asium	-3926
brush	-3927
camer	-3928
comes	-3929
enske	-3930
field	-3931
girls	-3932
gizer	-3933
illar	-3934
inghy	-3935
ipped	-3936
isper	-3937
itish	-3938
itted	-3939
itten	-3940
izing	-3941
lined	-3942
oring	-3943
paint	-3944
pants	-3945
phard	-3946
plets	-3947
rests	-3948
ridor	-3949
right	-3950
shade	-3951
stone	-3952
thing	-3953
usual	-3954
woman	-3955
▁ador	-3956
▁anti	-3957
▁barb	-3958
▁bark	-3959
▁beds	-3960
▁birt	-3961
▁buff	-3962
▁bump	-3963
▁bund	-3964
▁call	-3965
▁calm	-3966
▁camo	-3967
▁comm	-3968
▁conf	-3969
▁cons	-3970
▁cots	-3971
▁crab	-3972
▁craz	-3973
▁desk	-3974
▁ends	-3975
▁exam	-3976
▁eyed	-3977
▁fans	-3978
▁glow	-3979
▁golf	-3980
▁gras	-3981
▁graz	-3982
▁guns	-3983
▁hear	-3984
▁hero	-3985
▁hips	-3986
▁jogg	-3987
▁lear	-3988
▁lens	-3989
▁limb	-3990
▁lock	-3991
▁loun	-3992
▁main	-3993
▁mall	-3994
▁mats	-3995
▁menu	-3996
▁monk	-3997
▁moon	-3998
▁moss	-3999
▁must	-4000
▁nice	-4001
▁oars	-4002
▁oxen	-4003
▁pear	-4004
▁puck	-4005
▁pump	-4006
▁remo	-4007
▁rott	-4008
▁snar	-4009
▁sumo	-4010
▁tags	-4011
▁test	-4012
▁tick	-4013
▁ties	-4014
▁tiny	-4015
▁tips	-4016
▁upon	-4017
▁vine	-4018
▁when	-4019
▁york	-4020
▁zara	-4021
acelet	-4022
active	-4023
corder	-4024
ertain	-4025
isoner	-4026
isting	-4027
shaped	-4028
spread	-4029
weight	-4030
weiler	-4031
▁aisle	-4032
▁attra	-4033
▁award	-4034
▁belly	-4035
▁belts	-4036
▁bends	-4037
▁beret	-4038
▁bills	-4039
▁blood	-4040
▁breat	-4041
▁breed	-4042
▁bulld	-4043
▁canon	-4044
▁chunk	-4045
▁clean	-4046
▁coast	-4047
▁cords	-4048
▁craft	-4049
▁crown	-4050
▁cycle	-4051
▁depic	-4052
▁dimly	-4053
▁diner	-4054
▁dirtb	-4055
▁dives	-4056
▁dumps	-4057
▁easel	-4058
▁enter	-4059
▁fatig	-4060
▁films	-4061
▁flood	-4062
▁flops	-4063
▁focus	-4064
▁gallo	-4065
▁gated	-4066
▁goats	-4067
▁grown	-4068
▁hairy	-4069
▁hilly	-4070
▁horns	-4071
▁hotel	-4072
▁india	-4073
▁jesus	-4074
▁lease	-4075
▁leave	-4076
▁lifts	-4077
▁lives	-4078
▁lunch	-4079
▁mambo	-4080
▁marks	-4081
▁menus	-4082
▁newly	-4083
▁olymp	-4084
▁overs	-4085
▁peaks	-4086
▁peers	-4087
▁picks	-4088
▁plain	-4089
▁posts	-4090
▁produ	-4091
▁purch	-4092
▁quilt	-4093
▁rusty	-4094
▁saber	-4095
▁sacks	-4096
▁sells	-4097
▁shady	-4098
▁shine	-4099
▁shiny	-4100
▁skies	-4101
▁skips	-4102
▁steel	-4103
▁storm	-4104
▁stove	-4105
▁swirl	-4106
▁sword	-4107
▁teddy	-4108
▁thick	-4109
▁threw	-4110
▁tiled	-4111
▁trots	-4112
▁uncut	-4113
▁union	-4114
▁vault	-4115
▁wades	-4116
▁walls	-4117
▁works	-4118
▁world	-4119
▁wrink	-4120
icopter	-4121
nequins	-4122
skinned	-4123
ustrial	-4124
wheeled	-4125
▁adjust	-4126
▁asking	-4127
▁awning	-4128
▁babies	-4129
▁blueje	-4130
▁boxers	-4131
▁bridal	-4132
▁button	-4133
▁buying	-4134
▁castle	-4135
▁choppy	-4136
▁cigars	-4137
▁cobble	-4138
▁concer	-4139
▁crests	-4140
▁curved	-4141
▁dinghy	-4142
▁dining	-4143
▁dodges	-4144
▁domino	-4145
▁dragon	-4146
▁driven	-4147
▁except	-4148
▁facial	-4149
▁fisher	-4150
▁floors	-4151
▁framed	-4152
▁glides	-4153
▁guards	-4154
▁headed	-4155
▁height	-4156
▁jumper	-4157
▁kayaks	-4158
▁lagoon	-4159
▁licked	-4160
▁master	-4161
▁mechan	-4162
▁member	-4163
▁needle	-4164
▁packed	-4165
▁paints	-4166
▁paragl	-4167
▁paying	-4168
▁penske	-4169
▁pillar	-4170
▁placed	-4171
▁poster	-4172
▁rabbit	-4173
▁raised	-4174
▁ravine	-4175
▁rounds	-4176
▁rowers	-4177
▁sailor	-4178
▁scenic	-4179
▁scouts	-4180
▁shades	-4181
▁sparks	-4182
▁spigot	-4183
▁spikes	-4184
▁square	-4185
▁starts	-4186
▁stride	-4187
▁stripe	-4188
▁stripy	-4189
▁studio	-4190
▁summer	-4191
▁tights	-4192
▁toilet	-4193
▁trails	-4194
▁tussle	-4195
▁unique	-4196
▁viewer	-4197
▁walker	-4198
american	-4199
iversity	-4200
ortation	-4201
▁admires	-4202
▁amongst	-4203
▁ancient	-4204
▁anticip	-4205
▁archway	-4206
▁artists	-4207
▁artwork	-4208
▁backlit	-4209
▁bandage	-4210
▁batsman	-4211
▁bearing	-4212
▁blocked	-4213
▁bottoms	-4214
▁boulder	-4215
▁british	-4216
▁bundled	-4217
▁candles	-4218
▁classic	-4219
▁congreg	-4220
▁cookies	-4221
▁couples	-4222
▁cowboys	-4223
▁crystal	-4224
▁current	-4225
▁cycling	-4226
▁digital	-4227
▁exhibit	-4228
▁extends	-4229
▁eyebrow	-4230
▁farmers	-4231
▁feeding	-4232
▁fencers	-4233
▁fetches	-4234
▁flowing	-4235
▁frolick	-4236
▁gliding	-4237
▁handbag	-4238
▁hardhat	-4239
▁heavily	-4240
▁humping	-4241
▁keeping	-4242
▁laptops	-4243
▁leading	-4244
▁leashed	-4245
▁lecture	-4246
▁lifting	-4247
▁located	-4248
▁messily	-4249
▁minivan	-4250
▁monitor	-4251
▁monster	-4252
▁objects	-4253
▁perched	-4254
▁pitches	-4255
▁praying	-4256
▁propped	-4257
▁puddles	-4258
▁raceway	-4259
▁rocking	-4260
▁runners	-4261
▁scruffy	-4262
▁seating	-4263
▁skiiers	-4264
▁sleeves	-4265
▁snowmob	-4266
▁soaring	-4267
▁sooners	-4268
▁sprints	-4269
▁strikes	-4270
▁strings	-4271
▁sucking	-4272
▁support	-4273
▁toilets	-4274
▁trainer	-4275
▁travers	-4276
▁tugboat	-4277
▁tugging	-4278
▁tuxedos	-4279
▁unhappy	-4280
▁unusual	-4281
▁upright	-4282
▁whisper	-4283
▁winding	-4284
▁admiring	-4285
▁alleyway	-4286
▁backward	-4287
▁birthday	-4288
▁blacktop	-4289
▁blocking	-4290
▁boulders	-4291
▁bracelet	-4292
▁campsite	-4293
▁canoeing	-4294
▁colander	-4295
▁confront	-4296
▁corridor	-4297
▁customer	-4298
▁demonstr	-4299
▁droplets	-4300
▁emerging	-4301
▁european	-4302
▁hurrying	-4303
▁incoming	-4304
▁labrador	-4305
▁launches	-4306
▁leggings	-4307
▁lipstick	-4308
▁official	-4309
▁olympics	-4310
▁overhang	-4311
▁parasail	-4312
▁portable	-4313
▁prisoner	-4314
▁railroad	-4315
▁raincoat	-4316
▁receives	-4317
▁register	-4318
▁removing	-4319
▁sailboat	-4320
▁shephard	-4321
▁snowsuit	-4322
▁somebody	-4323
▁somthing	-4324
▁spraying	-4325
▁stripped	-4326
▁suburban	-4327
▁suitcase	-4328
▁sunshade	-4329
▁teaching	-4330
▁trashcan	-4331
▁upturned	-4332
▁waterway	-4333
▁wrapping	-4334
▁afternoon	-4335
▁apartment	-4336
▁ascending	-4337
▁bedspread	-4338
▁camcorder	-4339
▁clutching	-4340
▁curiously	-4341
▁dalmatian	-4342
▁dalmation	-4343
▁energizer	-4344
▁entertain	-4345
▁firefight	-4346
▁gymnasium	-4347
▁horseback	-4348
▁listening	-4349
▁livestock	-4350
▁maneuvers	-4351
▁navigates	-4352
▁observing	-4353
▁paperback	-4354
▁patterned	-4355
▁piggyback	-4356
▁screaming	-4357
▁similarly	-4358
▁spreading	-4359
▁squatting	-4360
▁teammates	-4361
▁attraction	-4362
▁attractive	-4363
▁cartwheels	-4364
▁colorfully	-4365
▁dalmatians	-4366
▁decoration	-4367
▁displaying	-4368
▁floatation	-4369
▁footballer	-4370
▁helicopter	-4371
▁horseshoes	-4372
▁industrial	-4373
▁mannequins	-4374
▁motorbikes	-4375
▁multicolor	-4376
▁overweight	-4377
▁parachutes	-4378
▁saxophones	-4379
▁scratching	-4380
▁snowcapped	-4381
▁somersault	-4382
▁structures	-4383
▁suspenders	-4384
▁university	-4385
▁videotaped	-4386
▁celebrating	-4387
▁cobblestone	-4388
▁competitive	-4389
▁handicapped	-4390
▁interacting	-4391
▁parachuting	-4392
▁underground	-4393
▁wakeboarder	-4394
▁watermelons	-4395
▁windsurfing	-4396
▁conversation	-4397
▁motorcyclists	-4398
▁participating	-4399
▁transportation	-4400
dr	-4401
fl	-4402
gi	-4403
oh	-4404
pr	-4405
tr	-4406
vi	-4407
vy	-4408
xy	-4409
ze	-4410
zm	-4411
▁9	-4412
▁x	-4413
alo	-4414
apy	-4415
ari	-4416
aws	-4417
ays	-4418
bby	-4419
bre	-4420
car	-4421
chn	-4422
cks	-4423
del	-4424
dro	-4425
eep	-4426
eer	-4427
eks	-4428
elf	-4429
erc	-4430
erm	-4431
eta	-4432
eve	-4433
gan	-4434
het	-4435
ibb	-4436
iet	-4437
igo	-4438
imp	-4439
kin	-4440
kle	-4441
lac	-4442
llb	-4443
lom	-4444
nie	-4445
ony	-4446
oos	-4447
oth	-4448
own	-4449
pan	-4450
pat	-4451
qup	-4452
rov	-4453
sle	-4454
tan	-4455
try	-4456
uke	-4457
ula	-4458
uma	-4459
umm	-4460
uss	-4461
var	-4462
vel	-4463
vet	-4464
vol	-4465
yer	-4466
▁av	-4467
▁ax	-4468
▁es	-4469
▁ir	-4470
▁ke	-4471
▁wo	-4472
▁yo	-4473
adal	-4474
agaz	-4475
ains	-4476
alse	-4477
amic	-4478
ampy	-4479
angu	-4480
anse	-4481
apes	-4482
arer	-4483
asch	-4484
asse	-4485
avan	-4486
ayer	-4487
bars	-4488
bogg	-4489
chel	-4490
cket	-4491
clad	-4492
come	-4493
ctor	-4494
dern	-4495
dola	-4496
drop	-4497
eers	-4498
ello	-4499
iky	-4500
oop	-4501
rac	-4502
saw	-4503
ubs	-4504
▁oh	-4505
aran	-4506
aurd	-4507
cage	-4508
dled	-4509
eman	-4510
ense	-4511
five	-4512
ghan	-4513
gher	-4514
gund	-4515
here	-4516
hift	-4517
hirt	-4518
ices	-4519
idow	-4520
iked	-4521
illa	-4522
imon	-4523
inja	-4524
ised	-4525
ithe	-4526
ject	-4527
kart	-4528
lamp	-4529
lent	-4530
lewe	-4531
lies	-4532
llie	-4533
loye	-4534
mant	-4535
mart	-4536
ming	-4537
mple	-4538
ngth	-4539
ooth	-4540
orth	-4541
otic	-4542
poms	-4543
ppie	-4544
rait	-4545
raps	-4546
rase	-4547
reme	-4548
resh	-4549
roud	-4550
rous	-4551
seen	-4552
sely	-4553
sted	-4554
step	-4555
tely	-4556
tled	-4557
town	-4558
ubby	-4559
ucet	-4560
ucif	-4561
udge	-4562
uore	-4563
ures	-4564
wire	-4565
yond	-4566
yset	-4567
zaga	-4568
zing	-4569
zmat	-4570
▁ace	-4571
▁aff	-4572
▁aid	-4573
▁any	-4574
▁arg	-4575
▁avo	-4576
▁awa	-4577
▁cit	-4578
▁dad	-4579
▁dec	-4580
▁del	-4581
▁det	-4582
▁egy	-4583
▁fac	-4584
▁fed	-4585
▁fit	-4586
▁hip	-4587
▁ign	-4588
▁imp	-4589
▁ink	-4590
▁jar	-4591
▁joy	-4592
▁lav	-4593
▁mad	-4594
▁non	-4595
▁oar	-4596
▁our	-4597
▁pal	-4598
▁ple	-4599
ult	-4600
tern	-4601
▁awk	-4602
▁pun	-4603
▁pup	-4604
▁sau	-4605
▁sen	-4606
▁sha	-4607
▁sip	-4608
▁sol	-4609
▁suv	-4610
▁tap	-4611
▁tet	-4612
▁til	-4613
▁ton	-4614
▁vel	-4615
▁ven	-4616
▁viz	-4617
▁wel	-4618
actor	-4619
aghet	-4620
aging	-4621
amboo	-4622
ances	-4623
andem	-4624
andex	-4625
anion	-4626
aping	-4627
aract	-4628
arium	-4629
artan	-4630
ashes	-4631
asing	-4632
ately	-4633
athon	-4634
beled	-4635
brero	-4636
centr	-4637
ckled	-4638
climb	-4639
cting	-4640
diver	-4641
elled	-4642
elunk	-4643
empla	-4644
ently	-4645
erial	-4646
erves	-4647
estal	-4648
gling	-4649
green	-4650
gundy	-4651
iener	-4652
ietly	-4653
iment	-4654
ingle	-4655
ipple	-4656
itect	-4657
ively	-4658
kemon	-4659
lacks	-4660
lines	-4661
mates	-4662
ogles	-4663
olate	-4664
oling	-4665
oping	-4666
osaur	-4667
otted	-4668
pical	-4669
plane	-4670
ption	-4671
ramid	-4672
rance	-4673
remon	-4674
riage	-4675
rised	-4676
rizes	-4677
rovul	-4678
scent	-4679
sized	-4680
sters	-4681
style	-4682
swing	-4683
tails	-4684
tered	-4685
truck	-4686
upied	-4687
ushes	-4688
ushie	-4689
uster	-4690
utine	-4691
uting	-4692
viron	-4693
wraps	-4694
zance	-4695
▁adhd	-4696
▁afro	-4697
▁amph	-4698
▁arab	-4699
▁bang	-4700
▁batt	-4701
▁beck	-4702
▁belt	-4703
▁bows	-4704
▁bugg	-4705
▁cane	-4706
▁chat	-4707
▁chef	-4708
▁chin	-4709
▁club	-4710
▁coas	-4711
▁come	-4712
▁cute	-4713
▁disk	-4714
▁dots	-4715
▁dren	-4716
▁duke	-4717
▁dwel	-4718
▁equp	-4719
▁find	-4720
▁flas	-4721
▁foal	-4722
▁glac	-4723
▁goof	-4724
▁gren	-4725
▁hide	-4726
▁hoes	-4727
▁hops	-4728
▁hund	-4729
▁husk	-4730
▁iced	-4731
▁junk	-4732
▁know	-4733
▁laid	-4734
▁lamp	-4735
▁lane	-4736
▁late	-4737
▁lime	-4738
▁loop	-4739
▁lump	-4740
▁mart	-4741
▁mist	-4742
▁mock	-4743
▁mult	-4744
▁nibb	-4745
▁nips	-4746
▁note	-4747
▁nude	-4748
▁pail	-4749
▁peek	-4750
▁perf	-4751
▁pers	-4752
▁phys	-4753
▁plug	-4754
▁pong	-4755
▁pooh	-4756
▁puma	-4757
▁push	-4758
▁quad	-4759
▁rack	-4760
▁rang	-4761
▁rapp	-4762
▁rays	-4763
▁reco	-4764
▁rele	-4765
▁rice	-4766
▁rise	-4767
▁romp	-4768
▁rose	-4769
▁rows	-4770
▁sear	-4771
▁sees	-4772
▁sell	-4773
▁sexy	-4774
▁shut	-4775
▁silk	-4776
▁size	-4777
▁slam	-4778
▁soil	-4779
▁soup	-4780
▁span	-4781
▁spir	-4782
▁sque	-4783
▁stay	-4784
▁stir	-4785
▁stro	-4786
▁tear	-4787
▁tied	-4788
▁tile	-4789
▁torn	-4790
▁trek	-4791
▁trim	-4792
▁twil	-4793
▁vamp	-4794
▁ware	-4795
▁weim	-4796
▁wipe	-4797
ambour	-4798
ancing	-4799
anding	-4800
angled	-4801
antily	-4802
appled	-4803
ashore	-4804
boggan	-4805
camera	-4806
cancom	-4807
compan	-4808
corted	-4809
costum	-4810
ensive	-4811
erness	-4812
gerous	-4813
handed	-4814
illage	-4815
indeer	-4816
inting	-4817
keeper	-4818
legged	-4819
leweed	-4820
licans	-4821
lights	-4822
llbott	-4823
loyees	-4824
merges	-4825
monica	-4826
omsmen	-4827
ricade	-4828
rolina	-4829
rousel	-4830
sleeve	-4831
uggles	-4832
urning	-4833
veless	-4834
▁aband	-4835
▁allow	-4836
▁ankle	-4837
▁appar	-4838
▁arena	-4839
▁badge	-4840
▁bales	-4841
▁bared	-4842
▁beams	-4843
▁blues	-4844
▁bluff	-4845
▁bowls	-4846
▁built	-4847
▁bulls	-4848
▁canal	-4849
▁cards	-4850
▁casts	-4851
▁chart	-4852
▁chats	-4853
▁china	-4854
▁chins	-4855
▁citiz	-4856
▁cooks	-4857
▁corgi	-4858
▁crazy	-4859
▁crust	-4860
▁curvy	-4861
▁dasch	-4862
▁david	-4863
▁diver	-4864
▁drill	-4865
▁drops	-4866
▁dunes	-4867
▁early	-4868
▁earth	-4869
▁elbow	-4870
▁exerc	-4871
▁exper	-4872
▁expos	-4873
▁false	-4874
▁ferry	-4875
▁finis	-4876
▁fishe	-4877
▁flash	-4878
▁foamy	-4879
▁fresh	-4880
▁gates	-4881
▁gaurd	-4882
▁gnaws	-4883
▁gorge	-4884
▁grasp	-4885
▁graze	-4886
▁greet	-4887
▁grove	-4888
▁hayst	-4889
▁heart	-4890
▁hides	-4891
▁holly	-4892
▁hopes	-4893
▁husks	-4894
▁invol	-4895
▁irish	-4896
▁jetty	-4897
▁kimon	-4898
▁ladle	-4899
▁langu	-4900
▁lobby	-4901
▁lolly	-4902
▁lucky	-4903
▁magaz	-4904
▁medit	-4905
▁moped	-4906
▁mossy	-4907
▁moust	-4908
▁nadal	-4909
▁nears	-4910
▁ninja	-4911
▁north	-4912
▁novel	-4913
▁ollie	-4914
▁organ	-4915
▁panel	-4916
▁pedal	-4917
▁pilot	-4918
▁playg	-4919
▁props	-4920
▁ramps	-4921
▁recie	-4922
▁retre	-4923
▁rises	-4924
▁saris	-4925
▁scary	-4926
▁scoop	-4927
▁seems	-4928
▁serve	-4929
▁share	-4930
▁sight	-4931
▁silly	-4932
▁skimp	-4933
▁sling	-4934
▁slush	-4935
▁soars	-4936
▁socks	-4937
▁spike	-4938
▁spiky	-4939
▁stony	-4940
▁strad	-4941
▁swarm	-4942
▁synch	-4943
▁tabby	-4944
▁techn	-4945
▁teens	-4946
▁theme	-4947
▁tooth	-4948
▁torso	-4949
▁tower	-4950
▁treks	-4951
▁twigs	-4952
▁twirl	-4953
▁wands	-4954
▁widow	-4955
▁wield	-4956
▁wipes	-4957
▁wound	-4958
▁wraps	-4959
▁wrist	-4960
▁yawns	-4961
▁yells	-4962
aghetti	-4963
angular	-4964
ational	-4965
boarder	-4966
chested	-4967
dressed	-4968
estrian	-4969
ishment	-4970
lescent	-4971
mercial	-4972
reached	-4973
rolling	-4974
ronized	-4975
▁advent	-4976
▁afghan	-4977
▁amused	-4978
▁arched	-4979
▁attack	-4980
▁awards	-4981
▁bamboo	-4982
▁batter	-4983
▁beaded	-4984
▁bearer	-4985
▁beyond	-4986
▁billow	-4987
▁bodies	-4988
▁bowler	-4989
▁braids	-4990
▁breaks	-4991
▁breath	-4992
▁bricks	-4993
▁brings	-4994
▁buried	-4995
▁calico	-4996
▁candle	-4997
▁carves	-4998
▁casual	-4999
▁checks	-5000
▁cheeks	-5001
▁chubby	-5002
▁cloaks	-5003
▁closes	-5004
▁column	-5005
▁commun	-5006
▁consum	-5007
▁crucif	-5008
▁cycles	-5009
▁design	-5010
▁determ	-5011
▁diaper	-5012
▁divers	-5013
▁docked	-5014
▁encour	-5015
▁exting	-5016
▁farmer	-5017
▁faucet	-5018
▁fences	-5019
▁finish	-5020
▁fleece	-5021
▁fluore	-5022
▁footbr	-5023
▁garage	-5024
▁gazebo	-5025
▁halter	-5026
▁handed	-5027
▁hazmat	-5028
▁higher	-5029
▁hunter	-5030
▁itself	-5031
▁jogger	-5032
▁kissed	-5033
▁ladles	-5034
▁launch	-5035
▁lining	-5036
▁lounge	-5037
▁manner	-5038
▁mantle	-5039
▁masked	-5040
▁mexico	-5041
▁midget	-5042
▁mingle	-5043
▁mixing	-5044
▁modern	-5045
▁moment	-5046
▁muscle	-5047
▁nature	-5048
▁nearly	-5049
▁necked	-5050
▁onward	-5051
▁parent	-5052
▁parlor	-5053
▁partly	-5054
▁pauses	-5055
▁pearls	-5056
▁pedals	-5057
▁permed	-5058
▁petals	-5059
▁phones	-5060
▁phrase	-5061
▁pickup	-5062
▁pinned	-5063
▁places	-5064
▁pocket	-5065
▁poured	-5066
▁prayer	-5067
▁proces	-5068
▁propel	-5069
▁protes	-5070
▁puppet	-5071
▁purses	-5072
▁pushed	-5073
▁raging	-5074
▁railed	-5075
▁resort	-5076
▁romant	-5077
▁rubble	-5078
▁runway	-5079
▁rushes	-5080
▁salvar	-5081
▁scared	-5082
▁senior	-5083
▁setter	-5084
▁shaded	-5085
▁shiner	-5086
▁shines	-5087
▁shrubs	-5088
▁slacks	-5089
▁slalom	-5090
▁sledge	-5091
▁slopes	-5092
▁smooth	-5093
▁snarls	-5094
▁social	-5095
▁sparse	-5096
▁spider	-5097
▁spiked	-5098
▁spouts	-5099
▁spring	-5100
▁squats	-5101
▁stance	-5102
▁steers	-5103
▁stoops	-5104
▁stunts	-5105
▁suited	-5106
▁suppor	-5107
▁swampy	-5108
▁tandem	-5109
▁tartan	-5110
▁taught	-5111
▁temple	-5112
▁treads	-5113
▁trials	-5114
▁turban	-5115
▁tuxedo	-5116
▁unseen	-5117
▁upward	-5118
▁velvet	-5119
▁walked	-5120
▁washed	-5121
▁watery	-5122
▁weaves	-5123
▁wiener	-5124
▁wildly	-5125
▁winnie	-5126
▁wintry	-5127
▁wiping	-5128
andelier	-5129
atically	-5130
climbing	-5131
costumed	-5132
elunkers	-5133
gressive	-5134
idential	-5135
itheater	-5136
▁adorned	-5137
▁antique	-5138
▁antlers	-5139
▁avrovul	-5140
▁awkward	-5141
▁balding	-5142
▁ballpla	-5143
▁banners	-5144
▁baseman	-5145
▁batting	-5146
▁becomes	-5147
▁bedroom	-5148
▁brushes	-5149
▁buffalo	-5150
▁bulldog	-5151
▁burning	-5152
▁bystand	-5153
▁caravan	-5154
▁ceremon	-5155
▁challen	-5156
▁charact	-5157
▁cheered	-5158
▁chicken	-5159
▁closing	-5160
▁cluster	-5161
▁collage	-5162
▁collide	-5163
▁complex	-5164
▁contest	-5165
▁couches	-5166
▁cowgirl	-5167
▁cracked	-5168
▁created	-5169
▁crevice	-5170
▁descend	-5171
▁descent	-5172
▁directs	-5173
▁drapped	-5174
▁drivers	-5175
▁element	-5176
▁environ	-5177
▁evening	-5178
▁expanse	-5179
▁extreme	-5180
▁filling	-5181
▁flexing	-5182
▁flipped	-5183
▁flooded	-5184
▁glacier	-5185
▁gnawing	-5186
▁gondola	-5187
▁gonzaga	-5188
▁googles	-5189
▁grapple	-5190
▁grasses	-5191
▁greyish	-5192
▁handing	-5193
▁hopping	-5194
▁housing	-5195
▁huddled	-5196
▁hundred	-5197
▁incline	-5198
▁knitted	-5199
▁labeled	-5200
▁lockers	-5201
▁massive	-5202
▁melting	-5203
▁missing	-5204
▁mittens	-5205
▁mottled	-5206
▁mounted	-5207
▁nipping	-5208
▁overhan	-5209
▁panting	-5210
▁partner	-5211
▁passage	-5212
▁pasture	-5213
▁peaking	-5214
▁peering	-5215
▁planeta	-5216
▁playful	-5217
▁plushie	-5218
▁pointer	-5219
▁pokemon	-5220
▁polaris	-5221
▁poodles	-5222
▁popping	-5223
▁posters	-5224
▁profile	-5225
▁pudding	-5226
▁pyramid	-5227
▁quietly	-5228
▁reached	-5229
▁ridding	-5230
▁roughly	-5231
▁routine	-5232
▁satchel	-5233
▁scaling	-5234
▁scenery	-5235
▁screams	-5236
▁seattle	-5237
▁secured	-5238
▁shadows	-5239
▁shelves	-5240
▁shocked	-5241
▁shovels	-5242
▁snowing	-5243
▁snowman	-5244
▁speaker	-5245
▁springs	-5246
▁studies	-5247
▁swerves	-5248
▁tackled	-5249
▁tackles	-5250
▁tambour	-5251
▁teaches	-5252
▁terrace	-5253
▁toolbox	-5254
▁topples	-5255
▁tourist	-5256
▁tractor	-5257
▁trailer	-5258
▁transit	-5259
▁travels	-5260
▁treated	-5261
▁trimmed	-5262
▁tubular	-5263
▁upwards	-5264
▁vending	-5265
▁village	-5266
▁walmart	-5267
▁washing	-5268
▁weaving	-5269
▁weights	-5270
▁winking	-5271
▁workout	-5272
▁written	-5273
itectural	-5274
llbottoms	-5275
▁accident	-5276
▁accompan	-5277
▁approach	-5278
▁aquarium	-5279
▁backdrop	-5280
▁backhand	-5281
▁barriers	-5282
▁birdcage	-5283
▁blossoms	-5284
▁bringing	-5285
▁brothers	-5286
▁burgundy	-5287
▁carolina	-5288
▁carousel	-5289
▁carriage	-5290
▁chainsaw	-5291
▁chickens	-5292
▁circular	-5293
▁clapping	-5294
▁clutches	-5295
▁coasting	-5296
▁concentr	-5297
▁converse	-5298
▁creating	-5299
▁creature	-5300
▁crevasse	-5301
▁crouched	-5302
▁dangling	-5303
▁darkened	-5304
▁daschund	-5305
▁desolate	-5306
▁dinosaur	-5307
▁downtown	-5308
▁drainage	-5309
▁drenched	-5310
▁drooling	-5311
▁dwelling	-5312
▁entrance	-5313
▁escorted	-5314
▁everyone	-5315
▁examines	-5316
▁eyebrows	-5317
▁facility	-5318
▁fatigues	-5319
▁fireball	-5320
▁flexible	-5321
▁formally	-5322
▁frolicks	-5323
▁greenery	-5324
▁grilling	-5325
▁handicap	-5326
▁headlamp	-5327
▁heavyset	-5328
▁ignoring	-5329
▁inflated	-5330
▁intently	-5331
▁kayakers	-5332
▁language	-5333
▁launcher	-5334
▁leafless	-5335
▁learning	-5336
▁location	-5337
▁marathon	-5338
▁material	-5339
▁mirrored	-5340
▁multiple	-5341
▁mustache	-5342
▁offstage	-5343
▁peaceful	-5344
▁pedestal	-5345
▁pelicans	-5346
▁penzance	-5347
▁peterson	-5348
▁piercing	-5349
▁pigtails	-5350
▁plugging	-5351
▁portrait	-5352
▁pouncing	-5353
▁practice	-5354
▁pretends	-5355
▁progress	-5356
▁reindeer	-5357
▁retrieve	-5358
▁scantily	-5359
▁scooters	-5360
▁seashore	-5361
▁shallows	-5362
▁shoeless	-5363
▁shutters	-5364
▁skipping	-5365
▁skydiver	-5366
▁sombrero	-5367
▁sparkler	-5368
▁speckled	-5369
▁sporting	-5370
▁spotters	-5371
▁starring	-5372
▁stepping	-5373
▁stocking	-5374
▁supplies	-5375
▁tattooed	-5376
▁terriers	-5377
▁thatched	-5378
▁toboggan	-5379
▁tourists	-5380
▁trailing	-5381
▁tropical	-5382
▁tumbling	-5383
▁twilight	-5384
▁vaulting	-5385
▁weimaran	-5386
▁wrestles	-5387
▁wrinkled	-5388
▁abandoned	-5389
▁adjusting	-5390
▁affection	-5391
▁assisting	-5392
▁barricade	-5393
▁beverages	-5394
▁billowing	-5395
▁bluejeans	-5396
▁breathing	-5397
▁celebrate	-5398
▁coastline	-5399
▁collected	-5400
▁companion	-5401
▁completes	-5402
▁computers	-5403
▁concerned	-5404
▁contempla	-5405
▁customers	-5406
▁dangerous	-5407
▁depicting	-5408
▁elevation	-5409
▁embracing	-5410
▁employees	-5411
▁entangled	-5412
▁exploring	-5413
▁facepaint	-5414
▁fashioned	-5415
▁feathered	-5416
▁firetruck	-5417
▁fisherman	-5418
▁galloping	-5419
▁gardening	-5420
▁groceries	-5421
▁groomsmen	-5422
▁guardrail	-5423
▁hairstyle	-5424
▁harmonica	-5425
▁harnessed	-5426
▁headwraps	-5427
▁hollywood	-5428
▁magazines	-5429
▁makeshift	-5430
▁motorboat	-5431
▁musicians	-5432
▁necklaces	-5433
▁nighttime	-5434
▁operating	-5435
▁returning	-5436
▁rotweiler	-5437
▁searching	-5438
▁snuggling	-5439
▁spaghetti	-5440
▁speedboat	-5441
▁squirting	-5442
▁stretcher	-5443
▁struggles	-5444
▁submerges	-5445
▁supported	-5446
▁technical	-5447
▁touchdown	-5448
▁traverses	-5449
▁warehouse	-5450
▁waterside	-5451
▁waterskis	-5452
▁youngster	-5453
▁adolescent	-5454
▁aggressive	-5455
▁assistance	-5456
▁barefooted	-5457
▁billboards	-5458
▁blossoming	-5459
▁chandelier	-5460
▁commercial	-5461
▁competitor	-5462
▁completely	-5463
▁congregate	-5464
▁decorative	-5465
▁directions	-5466
▁equestrian	-5467
▁eyeglasses	-5468
▁fairground	-5469
▁goalkeeper	-5470
▁handlebars	-5471
▁headlights	-5472
▁individual	-5473
▁longsleeve	-5474
▁mechanical	-5475
▁overlooked	-5476
▁paintbrush	-5477
▁paraglider	-5478
▁performers	-5479
▁purchasing	-5480
▁reflecting	-5481
▁retrievers	-5482
▁showerhead	-5483
▁sleeveless	-5484
▁spelunkers	-5485
▁storefront	-5486
▁struggling	-5487
▁surfboards	-5488
▁travelling	-5489
▁tumbleweed	-5490
▁wakeboards	-5491
▁whitewater	-5492
▁wilderness	-5493
▁youngsters	-5494
▁backpacking	-5495
▁bellbottoms	-5496
▁challenging	-5497
▁controlling	-5498
▁electronics	-5499
▁environment	-5500
▁firefighter	-5501
▁headdresses	-5502
▁identically	-5503
▁policewoman	-5504
▁possessions	-5505
▁residential	-5506
▁schoolgirls	-5507
▁snowmobiler	-5508
▁socializing	-5509
▁sweatshirts	-5510
▁tambourines	-5511
▁amphitheater	-5512
▁mountaineers	-5513
▁outstreached	-5514
▁rollerskates	-5515
▁synchronized	-5516
▁architectural	-5517
▁avrovulcancom	-5518
▁confrontation	-5519
▁affectionately	-5520
max	-5521
nae	-5522
occ	-5523
rah	-5524
sia	-5525
sme	-5526
▁zo	-5527
alia	-5528
anny	-5529
awny	-5530
club	-5531
cult	-5532
deep	-5533
ecut	-5534
edoo	-5535
epra	-5536
erma	-5537
erns	-5538
forc	-5539
fors	-5540
grah	-5541
huet	-5542
iker	-5543
inta	-5544
isms	-5545
mein	-5546
mson	-5547
odyn	-5548
oole	-5549
ozer	-5550
pole	-5551
post	-5552
pour	-5553
ript	-5554
rome	-5555
skis	-5556
taga	-5557
ttes	-5558
ummy	-5559
vely	-5560
wiel	-5561
wkes	-5562
▁axe	-5563
▁eth	-5564
▁hdr	-5565
▁maj	-5566
▁que	-5567
▁tax	-5568
▁zig	-5569
aftig	-5570
angle	-5571
arged	-5572
ascar	-5573
attan	-5574
boned	-5575
cious	-5576
clace	-5577
clips	-5578
conut	-5579
cript	-5580
dried	-5581
eared	-5582
eeing	-5583
ennae	-5584
erior	-5585
ezing	-5586
feren	-5587
finis	-5588
gical	-5589
grahi	-5590
hills	-5591
hlets	-5592
iates	-5593
icely	-5594
idden	-5595
iques	-5596
itors	-5597
itual	-5598
itude	-5599
nds	-5600
farm	-5601
kept	-5602
spon	-5603
ivery	-5604
ladel	-5605
lowds	-5606
ments	-5607
obile	-5608
onges	-5609
oolen	-5610
ordin	-5611
ordsh	-5612
otten	-5613
ously	-5614
perly	-5615
piece	-5616
print	-5617
reary	-5618
reeze	-5619
rical	-5620
ridly	-5621
robed	-5622
ronts	-5623
sstop	-5624
steps	-5625
synch	-5626
touch	-5627
uctor	-5628
uined	-5629
ulate	-5630
ulent	-5631
ussle	-5632
wined	-5633
zeria	-5634
zoned	-5635
▁abse	-5636
▁acts	-5637
▁aero	-5638
▁aids	-5639
▁argu	-5640
▁ashy	-5641
▁asia	-5642
▁atvs	-5643
▁auto	-5644
▁born	-5645
▁bron	-5646
▁butt	-5647
▁calf	-5648
▁casu	-5649
▁colt	-5650
▁crew	-5651
▁dads	-5652
▁daft	-5653
▁dips	-5654
▁dome	-5655
▁else	-5656
▁even	-5657
▁extr	-5658
▁flew	-5659
▁fton	-5660
▁garm	-5661
▁gond	-5662
▁gron	-5663
▁halo	-5664
▁hoof	-5665
▁hung	-5666
▁huts	-5667
▁imag	-5668
▁iron	-5669
▁jars	-5670
▁kept	-5671
▁knel	-5672
▁kore	-5673
▁labs	-5674
▁lamb	-5675
▁litl	-5676
▁milk	-5677
▁mime	-5678
▁much	-5679
▁mush	-5680
▁nurs	-5681
▁ohio	-5682
▁osme	-5683
▁pets	-5684
▁pigs	-5685
▁pins	-5686
▁poms	-5687
▁poof	-5688
▁powd	-5689
▁priz	-5690
▁punk	-5691
▁rips	-5692
▁rods	-5693
▁russ	-5694
▁seaf	-5695
▁seek	-5696
▁silo	-5697
▁skew	-5698
▁sugg	-5699
haz	-5700
bedd	-5701
dium	-5702
fish	-5703
ivit	-5704
ohaz	-5705
pool	-5706
uish	-5707
▁est	-5708
▁giv	-5709
akery	-5710
atery	-5711
brand	-5712
etery	-5713
ishas	-5714
paved	-5715
pects	-5716
ueger	-5717
▁asso	-5718
▁debr	-5719
▁gest	-5720
▁mean	-5721
▁nest	-5722
▁oout	-5723
▁pais	-5724
▁ques	-5725
▁taxi	-5726
▁tugs	-5727
▁unsp	-5728
▁upra	-5729
▁vibr	-5730
▁vigo	-5731
▁vint	-5732
▁wedg	-5733
▁were	-5734
▁wife	-5735
▁woam	-5736
▁wolf	-5737
▁zigz	-5738
▁zips	-5739
alized	-5740
amused	-5741
araunt	-5742
astime	-5743
bedded	-5744
bility	-5745
blader	-5746
boxing	-5747
cative	-5748
cented	-5749
ciated	-5750
cloudy	-5751
comple	-5752
dpiece	-5753
ecutes	-5754
eeping	-5755
emaker	-5756
ensely	-5757
ermaid	-5758
eshirt	-5759
estern	-5760
estive	-5761
flower	-5762
flying	-5763
forter	-5764
hooded	-5765
ickety	-5766
icular	-5767
ievely	-5768
iladel	-5769
inderb	-5770
iolent	-5771
ippled	-5772
irmein	-5773
istory	-5774
ittery	-5775
ivided	-5776
jector	-5777
larged	-5778
looker	-5779
loured	-5780
lovers	-5781
nected	-5782
obiles	-5783
oliers	-5784
osited	-5785
otties	-5786
ottish	-5787
paints	-5788
perate	-5789
placed	-5790
plexed	-5791
racial	-5792
ralian	-5793
riotic	-5794
ritten	-5795
rueger	-5796
scales	-5797
spects	-5798
stalks	-5799
xzz	-5800
gley	-5801
hats	-5802
iove	-5803
kier	-5804
lley	-5805
pels	-5806
tics	-5807
uxzz	-5808
vels	-5809
ymbo	-5810
▁nfl	-5811
avort	-5812
ivill	-5813
lable	-5814
ymbol	-5815
▁alum	-5816
▁buzz	-5817
▁eleg	-5818
▁iove	-5819
▁prin	-5820
▁razz	-5821
▁wier	-5822
ticula	-5823
ubbery	-5824
uchsia	-5825
uishes	-5826
ularly	-5827
vening	-5828
wieler	-5829
▁adobe	-5830
▁aimed	-5831
▁angle	-5832
▁anout	-5833
▁aquos	-5834
▁aston	-5835
▁atmos	-5836
▁autom	-5837
▁badly	-5838
▁beckh	-5839
▁blays	-5840
▁bread	-5841
▁bruis	-5842
▁bulky	-5843
▁bumps	-5844
▁burla	-5845
▁bushy	-5846
▁cello	-5847
▁charm	-5848
▁choke	-5849
▁chris	-5850
▁chute	-5851
▁claus	-5852
▁cleav	-5853
▁colum	-5854
▁convo	-5855
▁crawl	-5856
▁dared	-5857
▁dense	-5858
▁devot	-5859
▁dolly	-5860
▁domed	-5861
▁domes	-5862
▁domin	-5863
▁drags	-5864
▁ducky	-5865
▁dummy	-5866
▁eject	-5867
▁entry	-5868
▁ferns	-5869
▁fiery	-5870
▁figur	-5871
▁final	-5872
▁finds	-5873
▁fitls	-5874
▁forth	-5875
▁foyer	-5876
▁frizz	-5877
▁given	-5878
▁glide	-5879
▁goods	-5880
▁goofy	-5881
▁gorup	-5882
▁gouch	-5883
▁grapp	-5884
▁hanna	-5885
▁howls	-5886
▁indes	-5887
▁intot	-5888
▁keeps	-5889
▁kneel	-5890
▁lampo	-5891
▁lapel	-5892
▁layer	-5893
▁leagu	-5894
▁lilly	-5895
▁limbs	-5896
▁local	-5897
▁logos	-5898
▁madly	-5899
cret	-5900
erti	-5901
etti	-5902
gons	-5903
unky	-5904
▁veg	-5905
aphic	-5906
block	-5907
ertia	-5908
rated	-5909
rotes	-5910
scrap	-5911
▁clas	-5912
▁dive	-5913
▁emph	-5914
▁emty	-5915
▁exch	-5916
▁exit	-5917
▁insc	-5918
▁joke	-5919
▁jost	-5920
▁slou	-5921
emping	-5922
illock	-5923
itness	-5924
urated	-5925
▁appla	-5926
▁astro	-5927
▁bears	-5928
▁burst	-5929
▁cause	-5930
▁engul	-5931
▁exits	-5932
▁fangs	-5933
▁goals	-5934
▁harly	-5935
▁harps	-5936
▁joust	-5937
▁landm	-5938
▁maids	-5939
▁majes	-5940
▁maker	-5941
▁melts	-5942
▁messy	-5943
▁misty	-5944
▁model	-5945
▁monit	-5946
▁mucky	-5947
▁muxzz	-5948
▁naval	-5949
▁noise	-5950
▁notic	-5951
▁notre	-5952
▁numer	-5953
▁oxfor	-5954
▁palid	-5955
▁pasts	-5956
▁pearl	-5957
▁piled	-5958
▁pipes	-5959
▁portr	-5960
▁prair	-5961
▁proud	-5962
▁puffy	-5963
▁punch	-5964
▁punts	-5965
▁pylon	-5966
▁raise	-5967
▁rakes	-5968
▁rally	-5969
▁rears	-5970
▁recre	-5971
▁recyc	-5972
▁refer	-5973
▁repel	-5974
▁reson	-5975
▁rival	-5976
▁sails	-5977
▁scram	-5978
▁seats	-5979
▁shaft	-5980
▁shape	-5981
▁shave	-5982
▁shelf	-5983
▁sizes	-5984
▁skids	-5985
▁sleek	-5986
▁slips	-5987
▁snork	-5988
▁soaks	-5989
▁soapy	-5990
▁soggy	-5991
▁spays	-5992
▁speak	-5993
▁squat	-5994
▁stead	-5995
▁stirs	-5996
▁suite	-5997
▁super	-5998
▁tails	-5999
imy	-6000
rup	-6001
ups	-6002
yst	-6003
adet	-6004
ddha	-6005
idge	-6006
inue	-6007
owel	-6008
rium	-6009
stri	-6010
tree	-6011
▁bol	-6012
▁due	-6013
▁lon	-6014
▁sam	-6015
▁smo	-6016
bands	-6017
indow	-6018
rupts	-6019
towel	-6020
uever	-6021
uling	-6022
ystem	-6023
▁anat	-6024
▁bela	-6025
▁brie	-6026
▁cher	-6027
▁chim	-6028
▁diag	-6029
▁duel	-6030
▁egyt	-6031
▁fame	-6032
▁frog	-6033
▁furn	-6034
▁grip	-6035
▁hapy	-6036
▁loan	-6037
▁once	-6038
▁orbs	-6039
▁outs	-6040
▁pits	-6041
▁pour	-6042
▁sund	-6043
icured	-6044
instri	-6045
isters	-6046
skates	-6047
ultane	-6048
window	-6049
▁baggy	-6050
▁bolts	-6051
▁brief	-6052
▁cadet	-6053
▁crime	-6054
▁funky	-6055
▁raced	-6056
▁remax	-6057
▁roast	-6058
▁slimy	-6059
▁smock	-6060
▁stiff	-6061
▁taked	-6062
▁tawny	-6063
▁tears	-6064
▁tells	-6065
▁terri	-6066
▁terro	-6067
▁thous	-6068
▁tilts	-6069
▁torch	-6070
▁trekk	-6071
▁trous	-6072
▁tulip	-6073
▁upset	-6074
▁veget	-6075
▁vents	-6076
▁viewf	-6077
▁visor	-6078
▁waded	-6079
▁weird	-6080
▁whiel	-6081
▁wierd	-6082
▁wiped	-6083
▁woamn	-6084
▁wooly	-6085
▁woven	-6086
▁zepra	-6087
america	-6088
arrotes	-6089
atative	-6090
atefarm	-6091
atulate	-6092
aurants	-6093
baggons	-6094
bathing	-6095
branded	-6096
clining	-6097
cropped	-6098
dappled	-6099
ald	-6100
fec	-6101
ict	-6102
mot	-6103
res	-6104
tig	-6105
xes	-6106
amle	-6107
mote	-6108
omic	-6109
type	-6110
uise	-6111
vern	-6112
zone	-6113
▁eno	-6114
▁let	-6115
▁pay	-6116
aside	-6117
avill	-6118
grown	-6119
hones	-6120
ilple	-6121
umped	-6122
▁bunn	-6123
▁chic	-6124
▁cobb	-6125
▁cuts	-6126
▁poor	-6127
▁vict	-6128
ulting	-6129
vestig	-6130
▁agile	-6131
▁defec	-6132
▁landf	-6133
▁occas	-6134
▁packs	-6135
▁quart	-6136
▁snowp	-6137
▁snows	-6138
▁trike	-6139
▁tuxes	-6140
aphones	-6141
drawing	-6142
edience	-6143
emetery	-6144
erbread	-6145
ershirt	-6146
flowing	-6147
handled	-6148
hepherd	-6149
housing	-6150
huetted	-6151
ielding	-6152
illiant	-6153
imacing	-6154
imenter	-6155
inatown	-6156
ircling	-6157
itorium	-6158
ivering	-6159
ivities	-6160
keeping	-6161
kievely	-6162
onsored	-6163
otiates	-6164
potties	-6165
rescent	-6166
ricanes	-6167
roading	-6168
rocious	-6169
spandex	-6170
spotted	-6171
uzzling	-6172
vealing	-6173
vention	-6174
verside	-6175
weather	-6176
wooping	-6177
working	-6178
▁admire	-6179
▁alumin	-6180
▁anciet	-6181
▁antics	-6182
▁appare	-6183
▁aprons	-6184
▁argues	-6185
▁ascend	-6186
▁atmosp	-6187
▁atomic	-6188
▁atrium	-6189
▁backle	-6190
▁bathed	-6191
▁bathro	-6192
▁batons	-6193
▁battle	-6194
▁biohaz	-6195
▁bloody	-6196
▁bonnet	-6197
▁bowled	-6198
▁breast	-6199
our	-6200
rom	-6201
eple	-6202
esty	-6203
haps	-6204
irts	-6205
irty	-6206
path	-6207
pers	-6208
ride	-6209
rody	-6210
▁age	-6211
▁ate	-6212
▁gur	-6213
▁pel	-6214
apour	-6215
ashed	-6216
brown	-6217
iders	-6218
ieces	-6219
▁chut	-6220
▁cock	-6221
▁fred	-6222
▁neat	-6223
ishing	-6224
rashed	-6225
▁adorn	-6226
▁areas	-6227
▁based	-6228
▁cockp	-6229
▁embla	-6230
▁faced	-6231
▁gurne	-6232
▁knelt	-6233
▁panas	-6234
▁razer	-6235
fashion	-6236
▁antiqu	-6237
▁blazer	-6238
▁broach	-6239
▁bronze	-6240
▁buddha	-6241
▁bunchh	-6242
▁burrow	-6243
▁buster	-6244
▁butter	-6245
▁buzzes	-6246
▁called	-6247
▁camper	-6248
▁capris	-6249
▁cardig	-6250
▁cattle	-6251
▁cavern	-6252
▁cherry	-6253
▁chests	-6254
▁chewed	-6255
▁chicag	-6256
▁chimes	-6257
▁chrome	-6258
▁chunky	-6259
▁chutes	-6260
▁civill	-6261
▁cleans	-6262
▁clears	-6263
▁clever	-6264
▁clowds	-6265
▁cocked	-6266
▁coiled	-6267
▁collap	-6268
▁commut	-6269
▁convoy	-6270
▁crates	-6271
▁creams	-6272
▁crouch	-6273
▁crowns	-6274
▁cruise	-6275
▁debris	-6276
▁defend	-6277
▁digger	-6278
▁distur	-6279
▁dotted	-6280
▁draped	-6281
▁drills	-6282
▁dusted	-6283
▁easels	-6284
▁eatery	-6285
▁elbows	-6286
▁eldery	-6287
▁embank	-6288
▁embrac	-6289
▁emerge	-6290
▁enforc	-6291
▁engine	-6292
▁enough	-6293
▁entire	-6294
▁equpit	-6295
▁exotic	-6296
▁extend	-6297
▁extrav	-6298
▁fawkes	-6299
ael	-6300
hen	-6301
iut	-6302
opl	-6303
ume	-6304
▁ll	-6305
▁ls	-6306
▁yu	-6307
amet	-6308
ased	-6309
irly	-6310
lits	-6311
oplw	-6312
owed	-6313
poun	-6314
▁alo	-6315
▁goo	-6316
▁got	-6317
▁hul	-6318
▁mor	-6319
▁nar	-6320
▁thw	-6321
▁won	-6322
andis	-6323
assel	-6324
enger	-6325
eping	-6326
iutar	-6327
orway	-6328
poung	-6329
ppard	-6330
redom	-6331
uthed	-6332
▁alot	-6333
▁bohe	-6334
▁cath	-6335
▁cout	-6336
▁dram	-6337
▁grss	-6338
▁hulk	-6339
▁lass	-6340
▁pats	-6341
▁seag	-6342
▁teas	-6343
▁year	-6344
adowed	-6345
ametag	-6346
oorway	-6347
ugated	-6348
▁ashen	-6349
▁blown	-6350
▁bohem	-6351
▁flume	-6352
▁frown	-6353
▁goose	-6354
▁hound	-6355
▁kayer	-6356
▁lopes	-6357
▁mowed	-6358
▁narby	-6359
▁paddo	-6360
▁silky	-6361
▁thing	-6362
▁vegas	-6363
▁yuong	-6364
ametags	-6365
hadowed	-6366
rugated	-6367
▁anatom	-6368
▁blouse	-6369
▁coutry	-6370
▁fairly	-6371
▁feamle	-6372
▁fireho	-6373
▁fixing	-6374
▁flakes	-6375
▁fleecy	-6376
▁flexib	-6377
▁flirts	-6378
▁fortun	-6379
▁freddy	-6380
▁frizzy	-6381
▁fronds	-6382
▁garmet	-6383
▁gelled	-6384
▁gothic	-6385
▁gotten	-6386
▁goucho	-6387
▁granny	-6388
▁grasps	-6389
▁grazes	-6390
▁growls	-6391
▁halves	-6392
▁harbor	-6393
▁harves	-6394
▁heroes	-6395
▁hippie	-6396
▁hooked	-6397
▁hugged	-6398
▁impact	-6399
mi	-6400
ona	-6401
ski	-6402
yed	-6403
abby	-6404
erce	-6405
gear	-6406
onic	-6407
phia	-6408
rain	-6409
rise	-6410
roat	-6411
▁bei	-6412
▁boa	-6413
▁bog	-6414
▁toe	-6415
graph	-6416
ribed	-6417
▁athe	-6418
▁beij	-6419
▁dais	-6420
▁dyed	-6421
▁foul	-6422
▁ging	-6423
▁pand	-6424
▁peer	-6425
▁pugs	-6426
▁semi	-6427
▁whom	-6428
ichord	-6429
iences	-6430
restle	-6431
rizona	-6432
skiing	-6433
▁bland	-6434
▁marac	-6435
▁panda	-6436
▁stren	-6437
▁woody	-6438
wrestle	-6439
▁athele	-6440
▁belays	-6441
▁burned	-6442
▁collis	-6443
▁diners	-6444
▁fierce	-6445
▁firing	-6446
▁indigo	-6447
▁intern	-6448
▁island	-6449
▁jacked	-6450
▁jogged	-6451
▁khakis	-6452
▁kimono	-6453
▁korean	-6454
▁landed	-6455
▁lassos	-6456
▁lavish	-6457
▁length	-6458
▁levels	-6459
▁linked	-6460
▁litlle	-6461
▁locker	-6462
▁lonely	-6463
▁mainly	-6464
▁masses	-6465
▁median	-6466
▁messan	-6467
▁misses	-6468
▁mitten	-6469
▁motley	-6470
▁mullet	-6471
▁nascar	-6472
▁native	-6473
▁neatly	-6474
▁newlyw	-6475
▁nipple	-6476
▁notebo	-6477
▁objest	-6478
▁outise	-6479
▁owners	-6480
▁oxford	-6481
▁padded	-6482
▁passer	-6483
▁passin	-6484
▁pavill	-6485
▁pebble	-6486
▁persue	-6487
▁piglet	-6488
▁pilots	-6489
▁played	-6490
▁podium	-6491
▁poised	-6492
▁poking	-6493
▁potted	-6494
▁powder	-6495
▁preocc	-6496
▁preser	-6497
▁pretty	-6498
▁pulley	-6499
aue	-6500
ene	-6501
iin	-6502
ils	-6503
pin	-6504
vas	-6505
won	-6506
▁il	-6507
aiin	-6508
ailb	-6509
alth	-6510
aste	-6511
aves	-6512
injg	-6513
tsey	-6514
▁gig	-6515
▁jub	-6516
▁neg	-6517
▁saw	-6518
▁sin	-6519
▁too	-6520
alike	-6521
doors	-6522
itter	-6523
paste	-6524
uding	-6525
waiin	-6526
▁dave	-6527
▁dump	-6528
▁east	-6529
▁gain	-6530
▁ilks	-6531
▁knol	-6532
▁mail	-6533
▁marx	-6534
▁opin	-6535
▁opps	-6536
istine	-6537
length	-6538
raping	-6539
▁brwon	-6540
▁bumpy	-6541
▁estab	-6542
▁flick	-6543
▁flown	-6544
▁frost	-6545
▁jailb	-6546
▁jubil	-6547
▁knoll	-6548
▁overc	-6549
▁panes	-6550
▁pilar	-6551
▁sinks	-6552
▁staue	-6553
▁story	-6554
▁waist	-6555
strokes	-6556
tically	-6557
▁advant	-6558
▁canvas	-6559
▁dealth	-6560
▁establ	-6561
▁flickr	-6562
▁frosty	-6563
▁gigant	-6564
▁hitter	-6565
▁pullup	-6566
▁pumped	-6567
▁pursed	-6568
▁quarry	-6569
▁quinta	-6570
▁rafael	-6571
▁ragged	-6572
▁raling	-6573
▁rapels	-6574
▁rattan	-6575
▁redish	-6576
▁remote	-6577
▁repels	-6578
▁respon	-6579
▁ringed	-6580
▁ripped	-6581
▁rodent	-6582
▁rottwe	-6583
▁ruined	-6584
▁rushed	-6585
▁safely	-6586
▁safron	-6587
▁saucer	-6588
▁seagul	-6589
▁seater	-6590
▁seedoo	-6591
▁seller	-6592
▁shabby	-6593
▁shares	-6594
▁shoots	-6595
▁shrine	-6596
▁sights	-6597
▁siluet	-6598
▁skewed	-6599
ca	-6600
ev	-6601
zy	-6602
azz	-6603
ked	-6604
ola	-6605
evil	-6606
gret	-6607
lear	-6608
▁dam	-6609
▁ing	-6610
cause	-6611
child	-6612
clear	-6613
udely	-6614
▁buzy	-6615
▁cola	-6616
▁gift	-6617
▁ital	-6618
▁jazz	-6619
▁noce	-6620
▁nois	-6621
▁salm	-6622
▁shit	-6623
▁site	-6624
▁slur	-6625
▁surp	-6626
covers	-6627
eramic	-6628
essing	-6629
others	-6630
owling	-6631
▁beers	-6632
▁crumb	-6633
▁egret	-6634
▁feels	-6635
▁handw	-6636
▁homes	-6637
▁hoola	-6638
▁italy	-6639
▁jello	-6640
▁mulch	-6641
▁piles	-6642
▁reeds	-6643
▁shite	-6644
▁sleds	-6645
▁venue	-6646
brimmed	-6647
▁acroos	-6648
▁carved	-6649
▁colaps	-6650
▁decide	-6651
▁incred	-6652
▁nussle	-6653
▁palest	-6654
▁parody	-6655
▁perked	-6656
▁playes	-6657
▁ralley	-6658
▁robust	-6659
▁salmon	-6660
▁skills	-6661
▁skimpy	-6662
▁sleigh	-6663
▁sloped	-6664
▁sloppy	-6665
▁slurps	-6666
▁smoked	-6667
▁snacks	-6668
▁snarly	-6669
▁sooner	-6670
▁sphere	-6671
▁spiral	-6672
▁splits	-6673
▁squeak	-6674
▁stacks	-6675
▁stains	-6676
▁steady	-6677
▁stocky	-6678
▁stores	-6679
▁strain	-6680
▁strawb	-6681
▁streng	-6682
▁strong	-6683
▁sucker	-6684
▁sunlit	-6685
▁swirls	-6686
▁symbol	-6687
▁system	-6688
▁tassel	-6689
▁tatoos	-6690
▁teases	-6691
▁tented	-6692
▁tether	-6693
▁thirty	-6694
▁threat	-6695
▁throat	-6696
▁ticket	-6697
▁tinsel	-6698
▁tongee	-6699
iy	-6700
oy	-6701
▁u	-6702
isc	-6703
uti	-6704
yal	-6705
▁ou	-6706
bber	-6707
beam	-6708
itti	-6709
▁chi	-6710
▁kiy	-6711
▁onr	-6712
▁rif	-6713
▁vac	-6714
asset	-6715
fitti	-6716
icket	-6717
iture	-6718
ptian	-6719
▁bisc	-6720
▁buoy	-6721
▁dand	-6722
▁file	-6723
▁heap	-6724
▁leop	-6725
▁mind	-6726
▁muti	-6727
▁self	-6728
▁stal	-6729
acious	-6730
afitti	-6731
alling	-6732
amboat	-6733
around	-6734
ctrack	-6735
packed	-6736
scapes	-6737
▁dandy	-6738
▁edges	-6739
▁indic	-6740
▁onrus	-6741
▁royal	-6742
▁stoic	-6743
▁tatoo	-6744
akeskin	-6745
bbermen	-6746
eastern	-6747
▁basset	-6748
▁burlap	-6749
▁caster	-6750
▁dandyl	-6751
▁gurnee	-6752
▁images	-6753
▁ouside	-6754
▁pawing	-6755
▁rifles	-6756
▁smiled	-6757
▁speedo	-6758
▁stalks	-6759
▁towels	-6760
▁towers	-6761
▁treats	-6762
▁trudge	-6763
▁turtle	-6764
▁unspoo	-6765
▁vacant	-6766
▁vaults	-6767
▁venice	-6768
▁vision	-6769
▁waaves	-6770
▁waists	-6771
▁warily	-6772
▁waring	-6773
▁wedgie	-6774
▁wicket	-6775
▁widows	-6776
▁wields	-6777
▁woolen	-6778
▁wounds	-6779
▁writes	-6780
▁ypoung	-6781
▁zaftig	-6782
▁zigzag	-6783
affordsh	-6784
amphlets	-6785
andering	-6786
andishes	-6787
children	-6788
circling	-6789
couraged	-6790
cultural	-6791
eathered	-6792
fighting	-6793
finished	-6794
iolently	-6795
irmeiner	-6796
itnesses	-6797
iutarist	-6798
odynamic	-6799
cea	-6800
iry	-6801
wer	-6802
▁pf	-6803
acts	-6804
bees	-6805
epad	-6806
glow	-6807
inet	-6808
nate	-6809
tend	-6810
tosh	-6811
▁boe	-6812
▁don	-6813
izard	-6814
▁aims	-6815
▁cork	-6816
▁diry	-6817
▁hack	-6818
▁ones	-6819
▁rall	-6820
▁tren	-6821
▁word	-6822
cealed	-6823
intosh	-6824
tender	-6825
▁dolls	-6826
▁donut	-6827
▁eyese	-6828
▁faith	-6829
▁gowns	-6830
▁learn	-6831
▁linet	-6832
▁rapid	-6833
▁route	-6834
▁sewer	-6835
▁spoon	-6836
▁taped	-6837
▁tired	-6838
▁trace	-6839
▁bended	-6840
▁breeze	-6841
▁caring	-6842
▁chainm	-6843
▁formed	-6844
▁grouch	-6845
▁hackey	-6846
▁onesie	-6847
▁ornate	-6848
▁ranger	-6849
▁reacts	-6850
▁recent	-6851
▁trench	-6852
▁vapour	-6853
▁winner	-6854
▁wizard	-6855
acintosh	-6856
painting	-6857
racption	-6858
ratulate	-6859
restends	-6860
shepherd	-6861
swinging	-6862
ummaging	-6863
urocious	-6864
ustrated	-6865
venience	-6866
vocative	-6867
wheeling	-6868
▁ability	-6869
▁accents	-6870
▁actions	-6871
▁address	-6872
▁allowed	-6873
▁anatomy	-6874
▁apparat	-6875
▁apparel	-6876
▁arguing	-6877
▁arizona	-6878
▁ascends	-6879
▁attacks	-6880
▁awnings	-6881
▁bangles	-6882
▁battles	-6883
▁because	-6884
▁beckham	-6885
▁bedroll	-6886
▁begging	-6887
▁beijing	-6888
▁belongs	-6889
▁biplane	-6890
▁blazing	-6891
▁bouncer	-6892
▁bouncey	-6893
▁breaker	-6894
▁buggies	-6895
▁bumpers	-6896
▁bunnies	-6897
▁butterf	-6898
▁butting	-6899
idy	-6900
▁ht	-6901
eric	-6902
hear	-6903
pect	-6904
reis	-6905
zily	-6906
▁cli	-6907
▁gam	-6908
▁gin	-6909
▁idy	-6910
▁sty	-6911
▁sud	-6912
▁tar	-6913
acher	-6914
bling	-6915
▁gith	-6916
▁grin	-6917
▁mast	-6918
▁rung	-6919
▁sari	-6920
▁suds	-6921
▁tori	-6922
▁tray	-6923
▁youg	-6924
enties	-6925
pectac	-6926
▁avoid	-6927
▁cargo	-6928
▁flaut	-6929
▁grond	-6930
▁idyll	-6931
▁inver	-6932
▁scans	-6933
▁surve	-6934
▁tones	-6935
▁torii	-6936
▁whild	-6937
cameras	-6938
ericans	-6939
scraper	-6940
skating	-6941
▁circus	-6942
▁client	-6943
▁ethnic	-6944
▁exhibt	-6945
▁fiesty	-6946
▁footpr	-6947
▁glider	-6948
▁htting	-6949
▁jersay	-6950
▁lavend	-6951
▁lazily	-6952
▁looker	-6953
▁mastif	-6954
▁montan	-6955
▁queens	-6956
▁styled	-6957
▁target	-6958
▁arabian	-6959
▁carreis	-6960
▁carring	-6961
▁carving	-6962
▁cathcer	-6963
▁causing	-6964
▁chicago	-6965
▁childer	-6966
▁christm	-6967
▁cinderb	-6968
▁circled	-6969
▁circles	-6970
▁citizen	-6971
▁clapped	-6972
▁clasped	-6973
▁cleaned	-6974
▁clipped	-6975
▁closely	-6976
▁coached	-6977
▁cockpit	-6978
▁coconut	-6979
▁collaps	-6980
▁columns	-6981
▁compact	-6982
▁concert	-6983
▁contact	-6984
▁convert	-6985
▁coordin	-6986
▁crafted	-6987
▁crashes	-6988
▁crazily	-6989
▁creates	-6990
▁crudely	-6991
▁curtsey	-6992
▁daisies	-6993
▁damaged	-6994
▁dappled	-6995
▁davison	-6996
▁daytime	-6997
▁defends	-6998
▁demonst	-6999
bal	-7000
wal	-7001
aint	-7002
ainy	-7003
ived	-7004
▁dhe	-7005
▁god	-7006
▁had	-7007
▁hop	-7008
▁jok	-7009
▁las	-7010
▁ris	-7011
▁tip	-7012
▁use	-7013
anges	-7014
opers	-7015
▁appl	-7016
▁kind	-7017
▁sack	-7018
▁sale	-7019
▁than	-7020
▁wuth	-7021
aining	-7022
▁balck	-7023
▁brass	-7024
▁faint	-7025
▁heard	-7026
▁hindu	-7027
▁joker	-7028
▁milkb	-7029
▁prize	-7030
▁riwal	-7031
▁snare	-7032
patched	-7033
▁engulf	-7034
▁grainy	-7035
▁hidden	-7036
▁letter	-7037
▁orders	-7038
▁picure	-7039
▁prizes	-7040
▁rather	-7041
▁rising	-7042
▁sandal	-7043
▁secret	-7044
▁shapes	-7045
▁skatep	-7046
▁taller	-7047
▁verbal	-7048
▁busstop	-7049
▁changes	-7050
▁cobbled	-7051
▁coopers	-7052
▁depicts	-7053
▁devices	-7054
▁diagram	-7055
▁dipping	-7056
▁dirtbik	-7057
▁discuss	-7058
▁divided	-7059
▁dodging	-7060
▁dogsled	-7061
▁dragged	-7062
▁draping	-7063
▁dresser	-7064
▁drummer	-7065
▁earring	-7066
▁egytian	-7067
▁ejected	-7068
▁elegant	-7069
▁emerald	-7070
▁emerged	-7071
▁endzone	-7072
▁energet	-7073
▁excites	-7074
▁exiting	-7075
▁fathers	-7076
▁fatigue	-7077
▁feature	-7078
▁fellows	-7079
▁festive	-7080
▁fetched	-7081
▁fishers	-7082
▁fisheye	-7083
▁flaring	-7084
▁flashes	-7085
▁floored	-7086
▁florist	-7087
▁focused	-7088
▁focuses	-7089
▁foreign	-7090
▁fortess	-7091
▁fortune	-7092
▁fuchsia	-7093
▁furious	-7094
▁further	-7095
▁gallops	-7096
▁gathers	-7097
▁geishas	-7098
▁glances	-7099
▁ot	-7100
▁ti	-7101
hall	-7102
heve	-7103
high	-7104
hoop	-7105
ntal	-7106
▁arr	-7107
▁buy	-7108
▁gap	-7109
▁law	-7110
▁mog	-7111
▁mov	-7112
allic	-7113
tored	-7114
▁carj	-7115
▁clim	-7116
▁cong	-7117
▁dane	-7118
▁fanc	-7119
▁foil	-7120
▁lack	-7121
▁lets	-7122
▁mold	-7123
▁pant	-7124
▁perm	-7125
▁seid	-7126
▁tram	-7127
▁tuck	-7128
▁vans	-7129
ickers	-7130
yellow	-7131
▁array	-7132
▁backg	-7133
▁champ	-7134
▁clump	-7135
▁dusty	-7136
▁loops	-7137
▁loose	-7138
▁mogul	-7139
▁movie	-7140
▁overn	-7141
▁overt	-7142
▁trund	-7143
▁youth	-7144
adingly	-7145
heveled	-7146
nickers	-7147
▁aiming	-7148
▁backed	-7149
▁cavort	-7150
▁deeper	-7151
▁fliers	-7152
▁gloved	-7153
▁passed	-7154
▁rental	-7155
▁safari	-7156
▁snowed	-7157
▁spills	-7158
▁sweats	-7159
▁tentat	-7160
▁tucked	-7161
▁backing	-7162
▁biscuit	-7163
▁carjack	-7164
▁carrier	-7165
▁climing	-7166
▁fancily	-7167
▁gliders	-7168
▁glowing	-7169
▁goalies	-7170
▁goggled	-7171
▁gontaga	-7172
▁goofing	-7173
▁grenade	-7174
▁grouchy	-7175
▁grouped	-7176
▁guarded	-7177
▁haircut	-7178
▁halfway	-7179
▁hamming	-7180
▁hauling	-7181
▁hawaiin	-7182
▁helment	-7183
▁hillock	-7184
▁hilltop	-7185
▁hoodies	-7186
▁hoodoos	-7187
▁hunched	-7188
▁huskies	-7189
▁imagery	-7190
▁incense	-7191
▁inertia	-7192
▁infants	-7193
▁intense	-7194
▁joggers	-7195
▁jostles	-7196
▁juggler	-7197
▁keeling	-7198
▁kimonos	-7199
ods	-7200
ora	-7201
abin	-7202
hair	-7203
inky	-7204
leap	-7205
lert	-7206
long	-7207
pent	-7208
pink	-7209
pper	-7210
▁ash	-7211
▁lag	-7212
▁may	-7213
▁mma	-7214
▁nod	-7215
▁sli	-7216
class	-7217
illie	-7218
inder	-7219
indle	-7220
▁bust	-7221
▁catc	-7222
▁cord	-7223
▁crow	-7224
▁inse	-7225
▁name	-7226
▁nike	-7227
▁prox	-7228
▁soap	-7229
▁ways	-7230
apping	-7231
ressed	-7232
resses	-7233
▁alert	-7234
▁binky	-7235
▁boods	-7236
▁brige	-7237
▁cabin	-7238
▁crash	-7239
▁crows	-7240
▁force	-7241
▁index	-7242
▁tying	-7243
▁unman	-7244
▁weave	-7245
▁wires	-7246
penters	-7247
roughly	-7248
▁bakery	-7249
▁change	-7250
▁dreary	-7251
▁fedora	-7252
▁hairdo	-7253
▁handhe	-7254
▁insect	-7255
▁marble	-7256
▁occass	-7257
▁otherw	-7258
▁peoplw	-7259
▁popper	-7260
▁proxim	-7261
▁rafter	-7262
▁stange	-7263
▁swipes	-7264
▁brindle	-7265
▁carying	-7266
▁ceramic	-7267
▁dragons	-7268
▁fleeces	-7269
▁heights	-7270
▁kneeled	-7271
▁knotted	-7272
▁krueger	-7273
▁lagging	-7274
▁lampost	-7275
▁largley	-7276
▁leaguer	-7277
▁leopard	-7278
▁listens	-7279
▁litttle	-7280
▁longish	-7281
▁looming	-7282
▁lounges	-7283
▁maracas	-7284
▁markers	-7285
▁married	-7286
▁matchin	-7287
▁mermaid	-7288
▁message	-7289
▁mexican	-7290
▁minding	-7291
▁moniter	-7292
▁montana	-7293
▁morning	-7294
▁mountin	-7295
▁muscles	-7296
▁napping	-7297
▁neither	-7298
▁nestled	-7299
eed	-7300
ions	-7301
stop	-7302
yers	-7303
▁bit	-7304
▁hap	-7305
▁ill	-7306
aweed	-7307
bikes	-7308
ersus	-7309
fting	-7310
iller	-7311
oodle	-7312
▁arid	-7313
▁arri	-7314
▁aust	-7315
▁beak	-7316
▁comf	-7317
▁curl	-7318
▁drap	-7319
▁fill	-7320
▁indy	-7321
▁kill	-7322
▁mill	-7323
▁sewn	-7324
▁sole	-7325
▁sour	-7326
▁turf	-7327
arting	-7328
batics	-7329
jumper	-7330
roling	-7331
rowded	-7332
▁arbor	-7333
▁aross	-7334
▁begin	-7335
▁books	-7336
▁bting	-7337
▁deser	-7338
▁filed	-7339
▁goers	-7340
▁kiddy	-7341
▁loses	-7342
▁neckt	-7343
▁pasta	-7344
▁sands	-7345
▁setup	-7346
▁spill	-7347
locking	-7348
▁acting	-7349
▁arches	-7350
▁fields	-7351
▁happen	-7352
▁loaded	-7353
▁musher	-7354
▁notice	-7355
▁source	-7356
▁surges	-7357
▁thatch	-7358
▁varied	-7359
▁versus	-7360
▁walkng	-7361
▁banging	-7362
▁bruised	-7363
▁busying	-7364
▁comfort	-7365
▁graphic	-7366
▁heading	-7367
▁manuals	-7368
▁netting	-7369
▁nibbles	-7370
▁nodding	-7371
▁notepad	-7372
▁notices	-7373
▁novelty	-7374
▁nursery	-7375
▁obscene	-7376
▁observe	-7377
▁occured	-7378
▁operate	-7379
▁opinion	-7380
▁oppsite	-7381
▁organic	-7382
▁overall	-7383
▁package	-7384
▁paddled	-7385
▁paddock	-7386
▁paisley	-7387
▁palying	-7388
▁panties	-7389
▁pattern	-7390
▁pausing	-7391
▁peddled	-7392
▁peeping	-7393
▁pelican	-7394
▁perfoms	-7395
▁perfors	-7396
▁perhaps	-7397
▁periods	-7398
▁perpend	-7399
gn	-7400
tie	-7401
ably	-7402
bbed	-7403
teen	-7404
▁dug	-7405
▁tbe	-7406
▁tea	-7407
▁tee	-7408
▁via	-7409
abled	-7410
agent	-7411
amped	-7412
bbles	-7413
etops	-7414
gnant	-7415
shine	-7416
tured	-7417
wings	-7418
▁armo	-7419
▁bigs	-7420
▁cuto	-7421
▁dame	-7422
▁hunt	-7423
▁nine	-7424
▁prom	-7425
▁song	-7426
▁suns	-7427
▁tend	-7428
▁toll	-7429
▁vast	-7430
▁whie	-7431
rested	-7432
ubicle	-7433
▁bring	-7434
▁cable	-7435
▁chalk	-7436
▁chips	-7437
▁cloak	-7438
▁conif	-7439
▁cries	-7440
▁goate	-7441
▁moter	-7442
▁scent	-7443
▁spool	-7444
▁stubb	-7445
▁teach	-7446
▁trays	-7447
ference	-7448
flowers	-7449
ination	-7450
▁bobbed	-7451
▁buggys	-7452
▁cutoff	-7453
▁easily	-7454
▁goatee	-7455
▁groups	-7456
▁perfom	-7457
▁rimmed	-7458
▁somone	-7459
▁woolly	-7460
instripe	-7461
▁armoire	-7462
▁baskets	-7463
▁checker	-7464
▁clemson	-7465
▁cramped	-7466
▁cubicle	-7467
▁greenpe	-7468
▁lighter	-7469
▁mothers	-7470
▁pebbles	-7471
▁persues	-7472
▁phillie	-7473
▁pianist	-7474
▁pillows	-7475
▁pirates	-7476
▁playgym	-7477
▁pleople	-7478
▁pointed	-7479
▁pompoms	-7480
▁pooping	-7481
▁portion	-7482
▁pouting	-7483
▁powdery	-7484
▁prairie	-7485
▁printed	-7486
▁process	-7487
▁produce	-7488
▁product	-7489
▁protect	-7490
▁pumpkin	-7491
▁punches	-7492
▁punkish	-7493
▁rabbits	-7494
▁raining	-7495
▁rallies	-7496
▁rangers	-7497
▁rangler	-7498
▁rapidly	-7499
eye	-7500
ors	-7501
eyed	-7502
gage	-7503
ghly	-7504
inge	-7505
shot	-7506
▁add	-7507
▁bib	-7508
▁jaw	-7509
▁sig	-7510
antly	-7511
astel	-7512
dling	-7513
inian	-7514
ixion	-7515
point	-7516
▁bigg	-7517
▁done	-7518
▁draw	-7519
▁earm	-7520
▁pans	-7521
▁para	-7522
▁shed	-7523
awling	-7524
flight	-7525
orange	-7526
▁await	-7527
▁caged	-7528
▁dries	-7529
▁judge	-7530
▁mills	-7531
▁shook	-7532
▁sites	-7533
▁slice	-7534
▁spoke	-7535
▁toast	-7536
coaster	-7537
ication	-7538
▁become	-7539
▁breeds	-7540
▁coated	-7541
▁darker	-7542
▁darkly	-7543
▁fringe	-7544
▁gators	-7545
▁helped	-7546
▁nicely	-7547
▁pieces	-7548
▁strike	-7549
▁tablet	-7550
▁themed	-7551
▁topped	-7552
▁wastel	-7553
▁whites	-7554
ications	-7555
▁baggage	-7556
▁boating	-7557
▁brighly	-7558
▁chested	-7559
▁clothed	-7560
▁diverse	-7561
▁earmuff	-7562
▁forests	-7563
▁formula	-7564
▁idyllic	-7565
▁placing	-7566
▁rappels	-7567
▁readied	-7568
▁receive	-7569
▁recieve	-7570
▁recline	-7571
▁recoils	-7572
▁records	-7573
▁redhead	-7574
▁reeling	-7575
▁regalia	-7576
▁rickety	-7577
▁rippled	-7578
▁roadway	-7579
▁roasted	-7580
▁rubbing	-7581
▁ruggers	-7582
▁rundown	-7583
▁russell	-7584
▁saddled	-7585
▁samples	-7586
▁sandbox	-7587
▁saucers	-7588
▁scarily	-7589
▁schools	-7590
▁scoring	-7591
▁seafood	-7592
▁seaguls	-7593
▁seaside	-7594
▁seaweed	-7595
▁serious	-7596
▁session	-7597
▁shaving	-7598
▁shelter	-7599
face	-7600
uble	-7601
urer	-7602
▁bum	-7603
▁jug	-7604
ables	-7605
anted	-7606
epend	-7607
▁fell	-7608
▁flot	-7609
▁mate	-7610
▁puff	-7611
▁sill	-7612
▁slab	-7613
▁tell	-7614
▁vand	-7615
▁vert	-7616
▁bands	-7617
▁baton	-7618
▁bowed	-7619
▁capri	-7620
▁crack	-7621
▁disks	-7622
▁draft	-7623
▁drift	-7624
▁feild	-7625
▁fists	-7626
▁flats	-7627
▁hoses	-7628
▁ladys	-7629
▁lapse	-7630
▁pouch	-7631
▁sound	-7632
▁stoop	-7633
▁unner	-7634
▁whose	-7635
▁windy	-7636
▁winks	-7637
▁bathes	-7638
▁blowup	-7639
▁curled	-7640
▁decked	-7641
▁double	-7642
▁filmed	-7643
▁joking	-7644
▁kicker	-7645
▁lifted	-7646
▁marine	-7647
▁outfir	-7648
▁pastor	-7649
▁saddle	-7650
▁sashes	-7651
▁seeing	-7652
▁signal	-7653
▁videos	-7654
▁yorkie	-7655
ependent	-7656
▁boarder	-7657
▁boredom	-7658
▁bottled	-7659
▁engaged	-7660
▁lighted	-7661
▁mouthed	-7662
▁neclace	-7663
▁roiling	-7664
▁shelton	-7665
▁signage	-7666
▁signals	-7667
▁signing	-7668
▁sipping	-7669
▁sisters	-7670
▁skimply	-7671
▁skipped	-7672
▁skyward	-7673
▁slanted	-7674
▁slighty	-7675
▁sloping	-7676
▁slumped	-7677
▁smeared	-7678
▁snorkel	-7679
▁spandex	-7680
▁spaniel	-7681
▁spanish	-7682
▁speedos	-7683
▁spilled	-7684
▁sponges	-7685
▁squints	-7686
▁squirts	-7687
▁statute	-7688
▁steeple	-7689
▁sticker	-7690
▁stopped	-7691
▁stoppie	-7692
▁strides	-7693
▁strokes	-7694
▁swallow	-7695
▁swarmed	-7696
▁takeing	-7697
▁tattoed	-7698
▁teacher	-7699
action	-7700
▁drips	-7701
▁write	-7702
▁beckons	-7703
▁tending	-7704
▁terrior	-7705
▁theater	-7706
▁thought	-7707
▁thrower	-7708
▁tickets	-7709
▁tickled	-7710
▁tilling	-7711
▁tilting	-7712
▁toddles	-7713
▁touched	-7714
▁trapped	-7715
▁trolley	-7716
▁trotted	-7717
▁trumped	-7718
▁unifrom	-7719
▁unpaved	-7720
▁vampire	-7721
▁varying	-7722
▁vaulter	-7723
▁vendors	-7724
▁verizon	-7725
▁victory	-7726
▁viewing	-7727
▁vintage	-7728
▁walkers	-7729
▁warning	-7730
▁welcome	-7731
▁western	-7732
▁wetland	-7733
▁winters	-7734
▁wipeout	-7735
▁worried	-7736
▁wounded	-7737
▁youngle	-7738
▁zipping	-7739
▁zooming	-7740
completed	-7741
ersonator	-7742
fashioned	-7743
paintings	-7744
patterned	-7745
pectacled	-7746
sponsored	-7747
ticulates	-7748
▁accented	-7749
▁advances	-7750
▁aligator	-7751
▁alotment	-7752
▁aluminum	-7753
▁anouther	-7754
▁antennae	-7755
▁applebee	-7756
▁applying	-7757
▁archways	-7758
▁armchair	-7759
▁armstand	-7760
▁arriving	-7761
▁artistic	-7762
▁athelete	-7763
▁attacked	-7764
▁avoiding	-7765
▁awaiting	-7766
▁backlegs	-7767
▁backside	-7768
▁bandages	-7769
▁banister	-7770
▁barbwire	-7771
▁bareback	-7772
▁barettes	-7773
▁basement	-7774
▁battling	-7775
▁beanches	-7776
▁bleached	-7777
▁blockers	-7778
▁blooming	-7779
▁bluejean	-7780
▁bodysuit	-7781
▁bohemian	-7782
▁bookcase	-7783
▁boundary	-7784
▁branding	-7785
▁breathes	-7786
▁brownish	-7787
▁captured	-7788
▁cardigan	-7789
▁casterol	-7790
▁casually	-7791
▁cautious	-7792
▁cemetery	-7793
▁ceremony	-7794
▁chatting	-7795
▁cheerful	-7796
▁childern	-7797
▁childing	-7798
▁chrismas	-7799
▁churning	-7800
▁citizens	-7801
▁cleaning	-7802
▁cleavage	-7803
▁clinging	-7804
▁coaching	-7805
▁codpiece	-7806
▁collared	-7807
▁collects	-7808
▁collides	-7809
▁coloring	-7810
▁competes	-7811
▁confetti	-7812
▁confused	-7813
▁conifers	-7814
▁consumed	-7815
▁consumer	-7816
▁contents	-7817
▁continue	-7818
▁costumed	-7819
▁counters	-7820
▁coverall	-7821
▁cresting	-7822
▁currents	-7823
▁cushions	-7824
▁darkness	-7825
▁deciding	-7826
▁delivery	-7827
▁deserted	-7828
▁devotion	-7829
▁dirtbike	-7830
▁disabled	-7831
▁displays	-7832
▁distored	-7833
▁doghouse	-7834
▁dominant	-7835
▁dooorway	-7836
▁doorstep	-7837
▁downpour	-7838
▁drawings	-7839
▁drifting	-7840
▁drumming	-7841
▁earmuffs	-7842
▁egyptian	-7843
▁elevated	-7844
▁embedded	-7845
▁embraces	-7846
▁enlarged	-7847
▁entwined	-7848
▁equiment	-7849
▁exchange	-7850
▁exciting	-7851
▁executes	-7852
▁exercise	-7853
▁explores	-7854
▁exposing	-7855
▁exposure	-7856
▁extended	-7857
▁exterior	-7858
▁faithful	-7859
▁farmland	-7860
▁fastened	-7861
▁feathers	-7862
▁fighters	-7863
▁figurine	-7864
▁finished	-7865
▁finishes	-7866
▁firehose	-7867
▁firework	-7868
▁fishemen	-7869
▁flailing	-7870
▁flapping	-7871
▁flashing	-7872
▁flautist	-7873
▁flexable	-7874
▁floaters	-7875
▁floaties	-7876
▁flocking	-7877
▁flooring	-7878
▁flopping	-7879
▁footpath	-7880
▁footwork	-7881
▁forceful	-7882
▁forehead	-7883
▁freefall	-7884
▁frisbees	-7885
▁frowning	-7886
▁gambling	-7887
▁gaurdian	-7888
▁gigantic	-7889
▁glancing	-7890
▁glassess	-7891
▁glittery	-7892
▁goldfish	-7893
▁gorgeous	-7894
▁grafitti	-7895
▁greenish	-7896
▁greeting	-7897
▁grinning	-7898
▁grounded	-7899
▁grownups	-7900
▁guessing	-7901
▁hallways	-7902
▁handbags	-7903
▁handheld	-7904
▁handling	-7905
▁haystack	-7906
▁headless	-7907
▁headlong	-7908
▁helments	-7909
▁hundreds	-7910
▁hurridly	-7911
▁includes	-7912
▁inground	-7913
▁inspects	-7914
▁internet	-7915
▁inverted	-7916
▁investig	-7917
▁involved	-7918
▁jailbird	-7919
▁jousting	-7920
▁jubilant	-7921
▁jumpinjg	-7922
▁kiyaking	-7923
▁labelled	-7924
▁landfill	-7925
▁landform	-7926
▁landmark	-7927
▁launched	-7928
▁lavendar	-7929
▁lecturer	-7930
▁lifeboat	-7931
▁lkievely	-7932
▁lowering	-7933
▁manuever	-7934
▁metallic	-7935
▁milkbone	-7936
▁mobility	-7937
▁monitors	-7938
▁moonwalk	-7939
▁mountian	-7940
▁mudfight	-7941
▁mushroom	-7942
▁musician	-7943
▁muxzzled	-7944
▁nametags	-7945
▁navigate	-7946
▁neckless	-7947
▁neckties	-7948
▁nibbling	-7949
▁notebook	-7950
▁numerous	-7951
▁nuzzling	-7952
▁obscured	-7953
▁obscures	-7954
▁occasion	-7955
▁occupied	-7956
▁oncoming	-7957
▁onlooker	-7958
▁ourdoors	-7959
▁outlined	-7960
▁outlines	-7961
▁outwards	-7962
▁overcast	-7963
▁overhear	-7964
▁overlook	-7965
▁overturn	-7966
▁packages	-7967
▁paddlers	-7968
▁painters	-7969
▁paneling	-7970
▁partying	-7971
▁passerby	-7972
▁payfully	-7973
▁pedaling	-7974
▁philadel	-7975
▁physical	-7976
▁piloting	-7977
▁pitchers	-7978
▁pizzeria	-7979
▁poolside	-7980
▁portrate	-7981
▁powerful	-7982
▁prancing	-7983
▁pregnant	-7984
▁prepared	-7985
▁presents	-7986
▁pristine	-7987
▁properly	-7988
▁propping	-7989
▁protects	-7990
▁purchase	-7991
▁quarters	-7992
▁ractrack	-7993
▁railling	-7994
▁razzling	-7995
▁readying	-7996
▁recently	-7997
▁reflects	-7998
▁released	-7999
▁replaced	-8000
▁restrain	-8001
▁romantic	-8002
▁rounding	-8003
▁scottish	-8004
▁scowling	-8005
▁scramble	-8006
▁scraping	-8007
▁seidwalk	-8008
▁seperate	-8009
▁settings	-8010
▁sheppard	-8011
▁shouting	-8012
▁showroom	-8013
▁shrowded	-8014
▁sideline	-8015
▁signpost	-8016
▁sledders	-8017
▁sleeding	-8018
▁sliiding	-8019
▁slinging	-8020
▁slippers	-8021
▁slouched	-8022
▁slushies	-8023
▁snapping	-8024
▁snowpile	-8025
▁soldiers	-8026
▁solitary	-8027
▁solitude	-8028
▁someones	-8029
▁spacious	-8030
▁sparking	-8031
▁speeding	-8032
▁sponsors	-8033
▁sportman	-8034
▁spotting	-8035
▁squating	-8036
▁standard	-8037
▁standind	-8038
▁startled	-8039
▁steering	-8040
▁stiffing	-8041
▁stirring	-8042
▁stockcar	-8043
▁stomachs	-8044
▁straddle	-8045
▁strainer	-8046
▁streaked	-8047
▁streamer	-8048
▁strength	-8049
▁stretchy	-8050
▁stubbled	-8051
▁sundress	-8052
▁supports	-8053
▁suprised	-8054
▁surgical	-8055
▁swatting	-8056
▁sweating	-8057
▁sweeping	-8058
▁swimwear	-8059
▁swirling	-8060
▁swishing	-8061
▁swooping	-8062
▁takedown	-8063
▁tattered	-8064
▁teamates	-8065
▁teeshirt	-8066
▁tethered	-8067
▁thinking	-8068
▁thousand	-8069
▁thrashed	-8070
▁throught	-8071
▁traverse	-8072
▁treetops	-8073
▁trekkies	-8074
▁triangle	-8075
▁trousers	-8076
▁trundles	-8077
▁twenties	-8078
▁twirling	-8079
▁twisting	-8080
▁unamused	-8081
▁unmanned	-8082
▁upraised	-8083
▁vampires	-8084
▁vigorous	-8085
▁visiting	-8086
▁visitors	-8087
▁wallride	-8088
▁welcomes	-8089
▁wielding	-8090
▁windowed	-8091
▁wrinkley	-8092
atefarmcom	-8093
▁abarrotes	-8094
▁abseiling	-8095
▁advantage	-8096
▁aerobatic	-8097
▁americans	-8098
▁apparatus	-8099
▁attaching	-8100
▁attacking	-8101
▁attemping	-8102
▁attrative	-8103
▁awkwardly	-8104
▁backgound	-8105
▁backround	-8106
▁bandmates	-8107
▁bathrooms	-8108
▁bicyclers	-8109
▁bigwheels	-8110
▁billboard	-8111
▁biohazard	-8112
▁breezeway	-8113
▁brilliant	-8114
▁bulldozer	-8115
▁burrowing	-8116
▁butterfly	-8117
▁bystander	-8118
▁cartwheel	-8119
▁chainmail	-8120
▁character	-8121
▁childrens	-8122
▁chinatown	-8123
▁cliffside	-8124
▁collapses	-8125
▁colliding	-8126
▁collision	-8127
▁colorings	-8128
▁comforter	-8129
▁community	-8130
▁commuters	-8131
▁concealed	-8132
▁confronts	-8133
▁connected	-8134
▁cornfield	-8135
▁coverings	-8136
▁croquette	-8137
▁crucified	-8138
▁crumbling	-8139
▁daredevil	-8140
▁daschunds	-8141
▁daughters	-8142
▁defenders	-8143
▁defending	-8144
▁defensive	-8145
▁deposited	-8146
▁dirtbikes	-8147
▁discovers	-8148
▁dishtowel	-8149
▁displayed	-8150
▁disturbed	-8151
▁dobbermen	-8152
▁downsteps	-8153
▁downwards	-8154
▁dresswear	-8155
▁energetic	-8156
▁enjoyable	-8157
▁enjoyment	-8158
▁equpiment	-8159
▁examining	-8160
▁excitedly	-8161
▁exercises	-8162
▁expanding	-8163
▁flotation	-8164
▁flowering	-8165
▁footbride	-8166
▁foothills	-8167
▁forefront	-8168
▁fountains	-8169
▁furiously	-8170
▁furniture	-8171
▁furocious	-8172
▁gentlemen	-8173
▁gesturing	-8174
▁graffited	-8175
▁grappling	-8176
▁grassland	-8177
▁grayhound	-8178
▁grimacing	-8179
▁gymnastic	-8180
▁hairclips	-8181
▁happening	-8182
▁hardscape	-8183
▁harvested	-8184
▁haystacks	-8185
▁headbands	-8186
▁headlight	-8187
▁highchair	-8188
▁horseshoe	-8189
▁inflating	-8190
▁inscribed	-8191
▁intensely	-8192
▁intertube	-8193
▁involving	-8194
▁judgement	-8195
▁jumphouse	-8196
▁jumpsuits	-8197
▁lakefront	-8198
▁launching	-8199
▁lawnchair	-8200
▁littering	-8201
▁macintosh	-8202
▁manicured	-8203
▁messanger	-8204
▁messenger	-8205
▁moustache	-8206
▁multilple	-8207
▁mustached	-8208
▁newlyweds	-8209
▁nightclub	-8210
▁noticable	-8211
▁obedience	-8212
▁obscuring	-8213
▁obstacles	-8214
▁occassion	-8215
▁oceanside	-8216
▁offensive	-8217
▁onrushing	-8218
▁operators	-8219
▁opponents	-8220
▁otherwise	-8221
▁outfitted	-8222
▁overgrown	-8223
▁overhangs	-8224
▁overnight	-8225
▁overshirt	-8226
▁oversized	-8227
▁pamphlets	-8228
▁panasonic	-8229
▁panelling	-8230
▁paperwork	-8231
▁parasails	-8232
▁paraskier	-8233
▁passenger	-8234
▁patriotic	-8235
▁patroling	-8236
▁pavillion	-8237
▁pedalling	-8238
▁perplexed	-8239
▁physiques	-8240
▁piercings	-8241
▁pinstripe	-8242
▁plantains	-8243
▁playgroud	-8244
▁positions	-8245
▁practices	-8246
▁prestends	-8247
▁producing	-8248
▁projector	-8249
▁propeller	-8250
▁protector	-8251
▁protester	-8252
▁proximity	-8253
▁puckering	-8254
▁pullovers	-8255
▁rappeling	-8256
▁receiving	-8257
▁reception	-8258
▁recieving	-8259
▁reclining	-8260
▁recoiling	-8261
▁referring	-8262
▁reflected	-8263
▁regularly	-8264
▁relection	-8265
▁repelling	-8266
▁resaurant	-8267
▁retaining	-8268
▁retreived	-8269
▁retreiver	-8270
▁retrieved	-8271
▁revealing	-8272
▁riverbank	-8273
▁riverboat	-8274
▁riverside	-8275
▁rummaging	-8276
▁sailboard	-8277
▁saturated	-8278
▁saxophone	-8279
▁scratches	-8280
▁screening	-8281
▁sheepdogs	-8282
▁sheltered	-8283
▁shielding	-8284
▁shirtness	-8285
▁shortstop	-8286
▁showering	-8287
▁showgirls	-8288
▁shrubbery	-8289
▁siluettes	-8290
▁simultane	-8291
▁skatepark	-8292
▁snakeskin	-8293
▁snowfield	-8294
▁snowpants	-8295
▁spiritual	-8296
▁sprawling	-8297
▁sprinting	-8298
▁squeezing	-8299
▁squinting	-8300
▁steamboat	-8301
▁stockings	-8302
▁stonesign	-8303
▁stoplight	-8304
▁strapless	-8305
▁streambed	-8306
▁streaming	-8307
▁streetway	-8308
▁sunflower	-8309
▁surprised	-8310
▁surrounds	-8311
▁surveying	-8312
▁sweatband	-8313
▁sweatsuit	-8314
▁targeting	-8315
▁telegraph	-8316
▁tobaggons	-8317
▁touchline	-8318
▁tracksuit	-8319
▁tricycles	-8320
▁turbulent	-8321
▁underfoot	-8322
▁unspooled	-8323
▁vibrating	-8324
▁violently	-8325
▁wasteland	-8326
▁weathered	-8327
▁witnesses	-8328
▁wrestlers	-8329
▁yellowish	-8330
affordshire	-8331
▁acrobatics	-8332
▁activities	-8333
▁addressing	-8334
▁adventurer	-8335
▁adventures	-8336
▁antiquated	-8337
▁apparantly	-8338
▁applauding	-8339
▁associated	-8340
▁atmosphere	-8341
▁auditorium	-8342
▁australian	-8343
▁ballplayer	-8344
▁brandishes	-8345
▁bridesmaid	-8346
▁bystanders	-8347
▁campground	-8348
▁carpenters	-8349
▁celebrates	-8350
▁cellphones	-8351
▁ceremonial	-8352
▁characters	-8353
▁checkstand	-8354
▁cheerfully	-8355
▁civillians	-8356
▁classmates	-8357
▁colapsable	-8358
▁collapsing	-8359
▁collection	-8360
▁competiton	-8361
▁conference	-8362
▁consulting	-8363
▁contestant	-8364
▁convention	-8365
▁cornstalks	-8366
▁corrugated	-8367
▁coutryside	-8368
▁dandylions	-8369
▁defecating	-8370
▁delivering	-8371
▁determined	-8372
▁dirtbikers	-8373
▁disheveled	-8374
▁distressed	-8375
▁eachothers	-8376
▁electrical	-8377
▁elementary	-8378
▁embankment	-8379
▁emblazoned	-8380
▁encircling	-8381
▁encouraged	-8382
▁enforcment	-8383
▁equpitment	-8384
▁expressing	-8385
▁extinguish	-8386
▁fishscales	-8387
▁flashlight	-8388
▁florescent	-8389
▁fluorecent	-8390
▁footbridge	-8391
▁footprints	-8392
▁frolicking	-8393
▁goaltender	-8394
▁gondoliers	-8395
▁greenpeace	-8396
▁guiutarist	-8397
▁headscarfs	-8398
▁hoolahoops	-8399
▁hurricanes	-8400
▁incredible	-8401
▁indescript	-8402
▁indicating	-8403
▁instructor	-8404
▁interested	-8405
▁interrupts	-8406
▁jumpsuites	-8407
▁kickboxing	-8408
▁meandering	-8409
▁mechanisms	-8410
▁medatative	-8411
▁meditating	-8412
▁middleaged	-8413
▁motorbiker	-8414
▁moustaches	-8415
▁multistory	-8416
▁navigating	-8417
▁negotiates	-8418
▁noisemaker	-8419
▁organizing	-8420
▁outcroping	-8421
▁overfilled	-8422
▁overturned	-8423
▁passageway	-8424
▁photograhi	-8425
▁picnickers	-8426
▁pillowcase	-8427
▁pleadingly	-8428
▁powerlines	-8429
▁preservers	-8430
▁procession	-8431
▁protesting	-8432
▁recyclable	-8433
▁responders	-8434
▁restaraunt	-8435
▁retangular	-8436
▁riverwater	-8437
▁rottweiler	-8438
▁rottwieler	-8439
▁saxaphones	-8440
▁schoolyard	-8441
▁skyscraper	-8442
▁snowpacked	-8443
▁snowscapes	-8444
▁sportswear	-8445
▁sportwoman	-8446
▁straddling	-8447
▁strawberry	-8448
▁streetpole	-8449
▁stringless	-8450
▁suggestive	-8451
▁sunbathing	-8452
▁supporting	-8453
▁sweatpants	-8454
▁terrorizes	-8455
▁thoroughly	-8456
▁toothpaste	-8457
▁tourquoise	-8458
▁triangular	-8459
▁turnaround	-8460
▁underbrush	-8461
▁underpants	-8462
▁undershirt	-8463
▁unfinished	-8464
▁vandalized	-8465
▁vegetables	-8466
▁viewfinder	-8467
▁waitresses	-8468
▁waterfront	-8469
▁waterskies	-8470
▁waterskiis	-8471
▁weimaraner	-8472
▁weirmeiner	-8473
▁whispering	-8474
▁windowsill	-8475
▁wintertime	-8476
▁wristbands	-8477
▁accompanied	-8478
▁accompanies	-8479
▁adjustments	-8480
▁aerodynamic	-8481
▁anticipates	-8482
▁automobiles	-8483
▁backpackers	-8484
▁backstrokes	-8485
▁ballplayers	-8486
▁barechested	-8487
▁basketballs	-8488
▁blindfolded	-8489
▁boogieboard	-8490
▁celebration	-8491
▁cinderblock	-8492
▁clothesline	-8493
▁competiting	-8494
▁confronting	-8495
▁congregated	-8496
▁convenience	-8497
▁coordinator	-8498
▁crucifixion	-8499
▁decorations	-8500
▁demonstrate	-8501
▁discouraged	-8502
▁electricity	-8503
▁encouraging	-8504
▁entertainer	-8505
▁experiences	-8506
▁expressions	-8507
▁extravagent	-8508
▁fashionably	-8509
▁flexibility	-8510
▁fluorescent	-8511
▁footballers	-8512
▁gingerbread	-8513
▁handwritten	-8514
▁harpsichord	-8515
▁illustrated	-8516
▁interracial	-8517
▁intervening	-8518
▁labradoodle	-8519
▁maneuvering	-8520
▁meetinghall	-8521
▁mountainous	-8522
▁needlepoint	-8523
▁overflowing	-8524
▁overhanging	-8525
▁palestinian	-8526
▁paragliding	-8527
▁participant	-8528
▁preoccupied	-8529
▁provocative	-8530
▁reflections	-8531
▁restaurants	-8532
▁rottweiller	-8533
▁sailboarder	-8534
▁shorthaired	-8535
▁shoulderbag	-8536
▁sightseeing	-8537
▁silohuetted	-8538
▁somersaults	-8539
▁specialized	-8540
▁surfboarder	-8541
▁tentatively	-8542
▁threatening	-8543
▁transparent	-8544
▁videotaping	-8545
▁weimaraners	-8546
▁wildflowers	-8547
▁withdrawing	-8548
▁anticipating	-8549
▁anticipation	-8550
▁astonishment	-8551
▁bespectacled	-8552
▁breaststroke	-8553
▁cartwheeling	-8554
▁cheerleading	-8555
▁competeition	-8556
▁concentrates	-8557
▁congratulate	-8558
▁contemplates	-8559
▁contracption	-8560
▁demonstrates	-8561
▁dramatically	-8562
▁emphatically	-8563
▁entertainers	-8564
▁entertaining	-8565
▁experimenter	-8566
▁extinguishes	-8567
▁fingerpaints	-8568
▁firefighters	-8569
▁gesticulates	-8570
▁housekeeping	-8571
▁impersonator	-8572
▁interlocking	-8573
▁majestically	-8574
▁meditational	-8575
▁overshadowed	-8576
▁philadelphia	-8577
▁piggybacking	-8578
▁recreational	-8579
▁rollerskater	-8580
▁romantically	-8581
▁roughhousing	-8582
▁snowmobiling	-8583
▁statefarmcom	-8584
▁videocameras	-8585
▁christmastime	-8586
▁concentrating	-8587
▁constructions	-8588
▁contemplating	-8589
▁demonstarting	-8590
▁demonstrating	-8591
▁determination	-8592
▁establishment	-8593
▁facepaintings	-8594
▁investigating	-8595
▁multicoloured	-8596
▁perpendicular	-8597
▁progressively	-8598
▁rollercoaster	-8599
▁staffordshire	-8600
▁throughwindow	-8601
▁communications	-8602
▁schoolchildren	-8603
▁simultaneously	-8604
aze	-8605
bik	-8606
bra	-8607
div	-8608
gyb	-8609
gyt	-8610
hoe	-8611
ibr	-8612
mbs	-8613
mob	-8614
mpo	-8615
ofy	-8616
spo	-8617
xib	-8618
▁za	-8619
aids	-8620
arls	-8621
arml	-8622
ativ	-8623
ault	-8624
awls	-8625
awns	-8626
bags	-8627
bows	-8628
brac	-8629
brat	-8630
brim	-8631
brus	-8632
ccas	-8633
cier	-8634
ciet	-8635
cise	-8636
clin	-8637
clos	-8638
cord	-8639
dery	-8640
eese	-8641
enna	-8642
eout	-8643
ethn	-8644
fens	-8645
foms	-8646
fron	-8647
gero	-8648
gins	-8649
haki	-8650
hang	-8651
heye	-8652
hibt	-8653
hlet	-8654
hous	-8655
iber	-8656
iggy	-8657
ilms	-8658
iloh	-8659
impy	-8660
inny	-8661
irme	-8662
itls	-8663
ival	-8664
joys	-8665
laho	-8666
lepo	-8667
ligh	-8668
lish	-8669
maid	-8670
merc	-8671
mino	-8672
mony	-8673
ngee	-8674
nnet	-8675
omsm	-8676
oolg	-8677
ooly	-8678
orec	-8679
oven	-8680
owls	-8681
pact	-8682
pids	-8683
pipe	-8684
quee	-8685
ract	-8686
raft	-8687
rais	-8688
rint	-8689
rize	-8690
rons	-8691
ronz	-8692
rubb	-8693
spap	-8694
tish	-8695
toms	-8696
twhe	-8697
urns	-8698
vrov	-8699
cio	-8700
gym	-8701
hio	-8702
ymn	-8703
acio	-8704
aneo	-8705
arfs	-8706
ario	-8707
blaz	-8708
ggan	-8709
gger	-8710
hoes	-8711
igio	-8712
iole	-8713
obat	-8714
ortw	-8715
plac	-8716
riev	-8717
rizz	-8718
saur	-8719
sort	-8720
tane	-8721
udio	-8722
utio	-8723
wels	-8724
xedo	-8725
yees	-8726
ynam	-8727
yram	-8728
ywhe	-8729
zzle	-8730
▁alm	-8731
▁als	-8732
▁paj	-8733
▁qui	-8734
▁sym	-8735
▁syn	-8736
▁vio	-8737
▁woo	-8738
▁yog	-8739
▁zar	-8740
abric	-8741
acial	-8742
acter	-8743
afted	-8744
aglid	-8745
akedo	-8746
alico	-8747
ancom	-8748
armed	-8749
armer	-8750
armly	-8751
atche	-8752
aught	-8753
aults	-8754
azily	-8755
bbery	-8756
biler	-8757
brate	-8758
bride	-8759
brows	-8760
ccass	-8761
cends	-8762
cents	-8763
chest	-8764
chool	-8765
chron	-8766
cient	-8767
cited	-8768
cline	-8769
corat	-8770
ctric	-8771
ctron	-8772
cured	-8773
cused	-8774
cuses	-8775
cutes	-8776
edest	-8777
edien	-8778
edium	-8779
elbow	-8780
elier	-8781
ember	-8782
enien	-8783
ensel	-8784
erent	-8785
erges	-8786
erien	-8787
ermin	-8788
estab	-8789
eterm	-8790
etpla	-8791
ettes	-8792
euver	-8793
falls	-8794
fused	-8795
gaged	-8796
ganic	-8797
geous	-8798
ggies	-8799
cq	-8800
tw	-8801
eup	-8802
hsc	-8803
tiq	-8804
tti	-8805
upi	-8806
vul	-8807
aits	-8808
avys	-8809
blad	-8810
borh	-8811
empt	-8812
erol	-8813
etup	-8814
gain	-8815
legg	-8816
onso	-8817
orup	-8818
scap	-8819
scar	-8820
tiqu	-8821
uper	-8822
upon	-8823
upri	-8824
xits	-8825
▁bip	-8826
▁caf	-8827
▁civ	-8828
▁exe	-8829
▁exh	-8830
▁fiv	-8831
aperb	-8832
ardsc	-8833
atute	-8834
brace	-8835
cated	-8836
ckons	-8837
empts	-8838
gated	-8839
geons	-8840
ggled	-8841
hakis	-8842
happy	-8843
hemen	-8844
hetti	-8845
hibit	-8846
hicle	-8847
hlete	-8848
ializ	-8849
iaper	-8850
iated	-8851
ichor	-8852
idows	-8853
idual	-8854
idyll	-8855
ields	-8856
ieler	-8857
iewer	-8858
ified	-8859
igloo	-8860
igues	-8861
imals	-8862
imono	-8863
imply	-8864
inato	-8865
indfo	-8866
iniat	-8867
inish	-8868
ircle	-8869
irish	-8870
irror	-8871
irthd	-8872
items	-8873
itied	-8874
itive	-8875
ividu	-8876
izens	-8877
izont	-8878
kater	-8879
labor	-8880
leeve	-8881
letic	-8882
licks	-8883
losed	-8884
monic	-8885
mpics	-8886
nertu	-8887
nical	-8888
nnets	-8889
ofing	-8890
olved	-8891
onial	-8892
oolly	-8893
oresc	-8894
orkie	-8895
ought	-8896
owder	-8897
pipes	-8898
plays	-8899
ea	-8900
sl	-8901
adb	-8902
adi	-8903
adp	-8904
erl	-8905
ett	-8906
gen	-8907
gst	-8908
had	-8909
lag	-8910
lop	-8911
lub	-8912
nad	-8913
pri	-8914
rad	-8915
ran	-8916
ria	-8917
sta	-8918
stm	-8919
sts	-8920
tri	-8921
tsw	-8922
uph	-8923
wsp	-8924
ywo	-8925
adle	-8926
enic	-8927
icad	-8928
idst	-8929
lead	-8930
lest	-8931
llow	-8932
loon	-8933
ngis	-8934
omon	-8935
orri	-8936
phon	-8937
quin	-8938
reef	-8939
riot	-8940
ront	-8941
rori	-8942
unes	-8943
unet	-8944
urdo	-8945
urst	-8946
▁ast	-8947
▁eld	-8948
▁hei	-8949
▁pea	-8950
▁pod	-8951
▁sku	-8952
▁tos	-8953
▁upr	-8954
▁wad	-8955
asser	-8956
bread	-8957
idget	-8958
lowis	-8959
ooded	-8960
pread	-8961
quats	-8962
qupit	-8963
racpt	-8964
reads	-8965
reign	-8966
rieve	-8967
rints	-8968
ristm	-8969
robat	-8970
rolin	-8971
roriz	-8972
rowls	-8973
scure	-8974
sents	-8975
serve	-8976
spand	-8977
ssoci	-8978
sting	-8979
strat	-8980
stret	-8981
strum	-8982
tends	-8983
tiall	-8984
tique	-8985
tival	-8986
tlers	-8987
ubber	-8988
ublic	-8989
udien	-8990
uette	-8991
ulips	-8992
ummag	-8993
unges	-8994
ungle	-8995
urfer	-8996
uried	-8997
urned	-8998
urrow	-8999
fu	-9000
kt	-9001
bog	-9002
boo	-9003
cef	-9004
cei	-9005
eir	-9006
elc	-9007
elp	-9008
elt	-9009
gra	-9010
ima	-9011
imu	-9012
jes	-9013
lbo	-9014
mad	-9015
ngs	-9016
oys	-9017
pim	-9018
rim	-9019
tag	-9020
tel	-9021
uce	-9022
uim	-9023
urc	-9024
veh	-9025
xce	-9026
zip	-9027
ackl	-9028
airi	-9029
aliz	-9030
amel	-9031
anan	-9032
anel	-9033
atel	-9034
bout	-9035
dile	-9036
elle	-9037
ence	-9038
fite	-9039
gled	-9040
heep	-9041
hies	-9042
ided	-9043
imit	-9044
lace	-9045
once	-9046
otel	-9047
rece	-9048
rine	-9049
sers	-9050
ssel	-9051
uick	-9052
veal	-9053
xing	-9054
▁cof	-9055
▁cos	-9056
▁cov	-9057
▁lob	-9058
▁lol	-9059
▁sof	-9060
▁tak	-9061
▁tel	-9062
▁tim	-9063
▁yel	-9064
amera	-9065
andbo	-9066
ardbo	-9067
atman	-9068
lesco	-9069
ssoms	-9070
therw	-9071
ueens	-9072
utton	-9073
utumn	-9074
uvers	-9075
uzzle	-9076
vator	-9077
verse	-9078
versh	-9079
words	-9080
ycler	-9081
ysiqu	-9082
ytail	-9083
zeway	-9084
zines	-9085
▁agil	-9086
▁almo	-9087
▁apar	-9088
▁apro	-9089
▁bann	-9090
▁beca	-9091
▁blan	-9092
▁blaz	-9093
▁brea	-9094
▁brok	-9095
▁burg	-9096
▁cele	-9097
▁clem	-9098
▁croc	-9099
kw	-9100
nf	-9101
pm	-9102
aby	-9103
amc	-9104
amm	-9105
amn	-9106
ams	-9107
anv	-9108
cam	-9109
cew	-9110
cka	-9111
dhe	-9112
eam	-9113
edi	-9114
etr	-9115
gil	-9116
iam	-9117
iml	-9118
ims	-9119
lde	-9120
lup	-9121
pap	-9122
pec	-9123
sse	-9124
ssi	-9125
ssm	-9126
til	-9127
uea	-9128
uej	-9129
ung	-9130
wil	-9131
wis	-9132
xam	-9133
▁pi	-9134
ador	-9135
amat	-9136
amen	-9137
amid	-9138
assl	-9139
atue	-9140
cass	-9141
dver	-9142
eird	-9143
ever	-9144
gant	-9145
icip	-9146
kets	-9147
ream	-9148
reez	-9149
rien	-9150
rots	-9151
scri	-9152
sent	-9153
sser	-9154
uage	-9155
ulky	-9156
unam	-9157
usty	-9158
verb	-9159
verc	-9160
▁bef	-9161
▁clu	-9162
▁hil	-9163
▁lil	-9164
▁peo	-9165
▁pil	-9166
▁roi	-9167
▁rol	-9168
▁ros	-9169
▁tam	-9170
alian	-9171
aties	-9172
erful	-9173
esses	-9174
ished	-9175
jured	-9176
lever	-9177
lides	-9178
loons	-9179
ronze	-9180
ssing	-9181
under	-9182
vehic	-9183
zzles	-9184
▁belo	-9185
▁chap	-9186
▁cruc	-9187
▁dang	-9188
▁deli	-9189
▁digg	-9190
▁dumm	-9191
▁eart	-9192
▁entr	-9193
▁entw	-9194
▁envi	-9195
▁exer	-9196
▁fauc	-9197
▁figh	-9198
▁fogg	-9199
cp	-9200
pg	-9201
aki	-9202
aus	-9203
chh	-9204
cot	-9205
cov	-9206
ctr	-9207
eke	-9208
ema	-9209
gys	-9210
igs	-9211
ilb	-9212
itb	-9213
jet	-9214
lak	-9215
mic	-9216
not	-9217
oic	-9218
ota	-9219
otb	-9220
oti	-9221
pot	-9222
riv	-9223
sic	-9224
stl	-9225
tot	-9226
usp	-9227
vic	-9228
vot	-9229
xot	-9230
ysi	-9231
▁nf	-9232
▁nu	-9233
asid	-9234
asta	-9235
eish	-9236
enue	-9237
goun	-9238
gues	-9239
icat	-9240
icic	-9241
icit	-9242
ifro	-9243
orne	-9244
oted	-9245
oter	-9246
ppon	-9247
quad	-9248
ssto	-9249
ucer	-9250
unic	-9251
▁anc	-9252
▁ari	-9253
▁jel	-9254
▁nas	-9255
▁nei	-9256
▁nor	-9257
▁nur	-9258
▁sni	-9259
▁snu	-9260
▁sug	-9261
affor	-9262
andic	-9263
anied	-9264
eyser	-9265
herry	-9266
icers	-9267
ideot	-9268
ighty	-9269
lants	-9270
lding	-9271
onver	-9272
oolch	-9273
oting	-9274
river	-9275
rowns	-9276
▁carv	-9277
▁flor	-9278
▁froz	-9279
▁fuch	-9280
▁gaur	-9281
▁glan	-9282
▁glov	-9283
▁gnaw	-9284
▁goog	-9285
▁gott	-9286
▁hamm	-9287
▁harb	-9288
▁icic	-9289
▁incl	-9290
▁inde	-9291
▁indi	-9292
▁inst	-9293
▁kitc	-9294
▁knot	-9295
▁lang	-9296
▁ligh	-9297
▁liqu	-9298
▁loom	-9299
fy	-9300
ki	-9301
mm	-9302
adw	-9303
ank	-9304
ata	-9305
bir	-9306
day	-9307
ded	-9308
dge	-9309
dor	-9310
eng	-9311
gem	-9312
gew	-9313
iag	-9314
icy	-9315
nge	-9316
otp	-9317
plo	-9318
pto	-9319
pts	-9320
ril	-9321
tor	-9322
uge	-9323
url	-9324
acka	-9325
ackp	-9326
ackw	-9327
aphe	-9328
ardb	-9329
ardh	-9330
circ	-9331
dall	-9332
dred	-9333
earc	-9334
eild	-9335
irth	-9336
ithf	-9337
keup	-9338
lege	-9339
lide	-9340
lirt	-9341
litt	-9342
mers	-9343
oers	-9344
otog	-9345
pris	-9346
ritt	-9347
tard	-9348
uard	-9349
uild	-9350
utin	-9351
vide	-9352
xers	-9353
▁hos	-9354
▁oxf	-9355
affit	-9356
andag	-9357
aners	-9358
aters	-9359
ckers	-9360
cords	-9361
ersid	-9362
ersit	-9363
eside	-9364
etall	-9365
eters	-9366
heers	-9367
iking	-9368
ittle	-9369
oners	-9370
rient	-9371
umper	-9372
umpet	-9373
wners	-9374
▁atom	-9375
▁gard	-9376
▁maro	-9377
▁mead	-9378
▁mech	-9379
▁mont	-9380
▁mott	-9381
▁ninj	-9382
▁onst	-9383
▁penz	-9384
▁pigt	-9385
▁pitb	-9386
▁pitc	-9387
▁plus	-9388
▁pock	-9389
▁pomp	-9390
▁pran	-9391
▁pris	-9392
▁quin	-9393
▁ragg	-9394
▁refe	-9395
▁rema	-9396
▁resc	-9397
▁resp	-9398
▁rout	-9399
bur	-9400
dow	-9401
eti	-9402
geo	-9403
lum	-9404
nur	-9405
owd	-9406
owg	-9407
owl	-9408
ows	-9409
owy	-9410
sur	-9411
tow	-9412
ued	-9413
uri	-9414
urk	-9415
urp	-9416
urq	-9417
urr	-9418
yel	-9419
▁ur	-9420
arou	-9421
atsh	-9422
bers	-9423
bits	-9424
cide	-9425
erri	-9426
erve	-9427
grou	-9428
inum	-9429
iter	-9430
iven	-9431
love	-9432
lowd	-9433
lple	-9434
nitt	-9435
owbo	-9436
pleb	-9437
port	-9438
roqu	-9439
roup	-9440
ruff	-9441
shed	-9442
ssis	-9443
uple	-9444
uran	-9445
urch	-9446
urin	-9447
uris	-9448
urit	-9449
urre	-9450
wnst	-9451
▁ato	-9452
▁dur	-9453
▁rum	-9454
▁rur	-9455
▁sai	-9456
cular	-9457
erple	-9458
gning	-9459
lazer	-9460
omple	-9461
▁buss	-9462
▁carn	-9463
▁chal	-9464
▁chro	-9465
▁chun	-9466
▁earr	-9467
▁gran	-9468
▁grim	-9469
▁outl	-9470
▁rugg	-9471
▁runn	-9472
▁salv	-9473
▁scan	-9474
▁scot	-9475
▁shep	-9476
▁sigh	-9477
▁silu	-9478
▁skim	-9479
▁slei	-9480
▁slop	-9481
▁snor	-9482
▁soak	-9483
▁sogg	-9484
▁spag	-9485
▁spea	-9486
▁spik	-9487
▁stad	-9488
▁stom	-9489
▁summ	-9490
▁sunb	-9491
▁supr	-9492
▁syst	-9493
▁tart	-9494
▁tato	-9495
▁tigh	-9496
▁tobo	-9497
▁toot	-9498
▁tric	-9499
ov	-9500
oz	-9501
tt	-9502
adl	-9503
att	-9504
chd	-9505
chl	-9506
cho	-9507
chs	-9508
des	-9509
ech	-9510
enp	-9511
eum	-9512
ghb	-9513
ghl	-9514
ghw	-9515
hot	-9516
hut	-9517
mut	-9518
nch	-9519
ohe	-9520
owf	-9521
put	-9522
rch	-9523
rev	-9524
rss	-9525
tch	-9526
umo	-9527
uns	-9528
utf	-9529
uto	-9530
utr	-9531
yin	-9532
adlo	-9533
ainm	-9534
anet	-9535
arge	-9536
ench	-9537
etch	-9538
ghch	-9539
ildl	-9540
imen	-9541
imil	-9542
ledd	-9543
mann	-9544
ounc	-9545
pard	-9546
righ	-9547
rool	-9548
rout	-9549
shap	-9550
unch	-9551
uter	-9552
utes	-9553
utis	-9554
utum	-9555
whee	-9556
▁ais	-9557
▁dum	-9558
▁eit	-9559
▁fes	-9560
▁ite	-9561
▁lau	-9562
▁nad	-9563
▁onw	-9564
ammer	-9565
arder	-9566
essed	-9567
ghing	-9568
isher	-9569
lared	-9570
olley	-9571
pling	-9572
rople	-9573
ullup	-9574
ultic	-9575
verbo	-9576
▁hock	-9577
▁houn	-9578
▁moun	-9579
▁stum	-9580
▁toas	-9581
▁trop	-9582
▁twis	-9583
▁unam	-9584
▁univ	-9585
▁viol	-9586
▁walm	-9587
▁weed	-9588
▁weir	-9589
▁wetl	-9590
▁woun	-9591
▁writ	-9592
▁zaft	-9593
achute	-9594
acking	-9595
actice	-9596
affite	-9597
afford	-9598
ainage	-9599
fg	-9600
sq	-9601
wf	-9602
bon	-9603
cap	-9604
fas	-9605
fed	-9606
fst	-9607
hon	-9608
ipp	-9609
iro	-9610
lau	-9611
lut	-9612
non	-9613
olg	-9614
oni	-9615
onn	-9616
onw	-9617
ote	-9618
pon	-9619
rts	-9620
sat	-9621
ssw	-9622
udd	-9623
uli	-9624
uts	-9625
zed	-9626
▁ko	-9627
▁lk	-9628
anon	-9629
arkl	-9630
arry	-9631
arts	-9632
ctiv	-9633
edes	-9634
edit	-9635
gile	-9636
heel	-9637
ingl	-9638
isib	-9639
itec	-9640
leed	-9641
llis	-9642
lter	-9643
oman	-9644
onal	-9645
onis	-9646
orce	-9647
otle	-9648
reed	-9649
rian	-9650
ryst	-9651
tact	-9652
utch	-9653
▁adh	-9654
▁cri	-9655
▁lis	-9656
▁lop	-9657
▁pra	-9658
▁shu	-9659
▁ted	-9660
acker	-9661
agram	-9662
aller	-9663
andon	-9664
inged	-9665
onish	-9666
otton	-9667
owing	-9668
range	-9669
tying	-9670
uffed	-9671
ugges	-9672
undle	-9673
verag	-9674
▁endz	-9675
▁scal	-9676
▁shir	-9677
▁shro	-9678
▁skil	-9679
▁stil	-9680
▁ston	-9681
▁swis	-9682
▁tran	-9683
ackled	-9684
allers	-9685
americ	-9686
amines	-9687
amphle	-9688
amples	-9689
aneous	-9690
angers	-9691
angler	-9692
anical	-9693
aperwo	-9694
apless	-9695
araner	-9696
arders	-9697
arious	-9698
arking	-9699
cr	-9700
lk	-9701
asi	-9702
asp	-9703
ato	-9704
bic	-9705
cey	-9706
cow	-9707
ilh	-9708
lai	-9709
lec	-9710
lov	-9711
mir	-9712
ndo	-9713
onc	-9714
ono	-9715
orc	-9716
org	-9717
ori	-9718
orr	-9719
orw	-9720
por	-9721
rri	-9722
sca	-9723
sor	-9724
unm	-9725
woo	-9726
amil	-9727
arad	-9728
astl	-9729
atom	-9730
avor	-9731
ccer	-9732
eras	-9733
ethe	-9734
eway	-9735
fill	-9736
hine	-9737
icer	-9738
ieve	-9739
ilet	-9740
itre	-9741
kite	-9742
kway	-9743
lton	-9744
oint	-9745
orat	-9746
ortr	-9747
otre	-9748
ropp	-9749
ssos	-9750
veri	-9751
wirl	-9752
▁edg	-9753
▁gou	-9754
▁gri	-9755
▁lan	-9756
▁len	-9757
▁por	-9758
▁pou	-9759
▁rom	-9760
▁sme	-9761
▁sne	-9762
▁sor	-9763
▁tas	-9764
▁thi	-9765
▁thr	-9766
▁vap	-9767
▁yar	-9768
asten	-9769
chase	-9770
edall	-9771
ersay	-9772
ersue	-9773
ether	-9774
heard	-9775
ixing	-9776
ubble	-9777
uited	-9778
ulled	-9779
ummer	-9780
zzled	-9781
▁gonz	-9782
▁hann	-9783
▁plas	-9784
▁plaz	-9785
▁rund	-9786
▁skid	-9787
▁thir	-9788
armcom	-9789
armers	-9790
arning	-9791
assive	-9792
atches	-9793
atians	-9794
atural	-9795
aulter	-9796
avison	-9797
azines	-9798
bandon	-9799
ko	-9800
ku	-9801
mt	-9802
rd	-9803
ru	-9804
va	-9805
arc	-9806
cas	-9807
cin	-9808
fbo	-9809
fun	-9810
gue	-9811
iga	-9812
kid	-9813
lim	-9814
nol	-9815
oed	-9816
ois	-9817
ras	-9818
sem	-9819
upr	-9820
upw	-9821
vam	-9822
wnc	-9823
wnp	-9824
wnt	-9825
▁ye	-9826
alli	-9827
allp	-9828
allr	-9829
anch	-9830
andb	-9831
andl	-9832
andm	-9833
ando	-9834
ands	-9835
atig	-9836
ckon	-9837
earp	-9838
elch	-9839
ibit	-9840
imul	-9841
lawn	-9842
lown	-9843
lowu	-9844
onit	-9845
pand	-9846
pear	-9847
rean	-9848
rens	-9849
rewn	-9850
stre	-9851
umph	-9852
utom	-9853
vand	-9854
vass	-9855
wner	-9856
▁fas	-9857
▁hai	-9858
▁toa	-9859
▁tol	-9860
▁uph	-9861
andal	-9862
andhe	-9863
andin	-9864
andst	-9865
arked	-9866
assed	-9867
assen	-9868
chway	-9869
entic	-9870
ilver	-9871
lects	-9872
roniz	-9873
umpin	-9874
verlo	-9875
wning	-9876
▁fros	-9877
▁gont	-9878
▁hurd	-9879
▁rafa	-9880
▁tass	-9881
▁thes	-9882
bblest	-9883
brador	-9884
brates	-9885
ccured	-9886
chanis	-9887
chdown	-9888
chways	-9889
closed	-9890
ctions	-9891
ctural	-9892
ctures	-9893
curing	-9894
dapple	-9895
ducing	-9896
eiling	-9897
eition	-9898
elcome	-9899
eq	-9900
nd	-9901
rq	-9902
aso	-9903
bst	-9904
cet	-9905
dwo	-9906
ele	-9907
ere	-9908
ete	-9909
etp	-9910
etu	-9911
fet	-9912
fgh	-9913
gyp	-9914
ilm	-9915
nce	-9916
omo	-9917
omy	-9918
pad	-9919
pom	-9920
reg	-9921
sks	-9922
sto	-9923
uil	-9924
uni	-9925
unl	-9926
wnu	-9927
xer	-9928
zil	-9929
▁ly	-9930
asel	-9931
ason	-9932
bage	-9933
cert	-9934
elun	-9935
etal	-9936
eter	-9937
etes	-9938
fits	-9939
ghty	-9940
heet	-9941
isty	-9942
leph	-9943
loom	-9944
mall	-9945
okie	-9946
onif	-9947
pens	-9948
ssic	-9949
ulti	-9950
usic	-9951
verh	-9952
▁bon	-9953
▁boo	-9954
▁bos	-9955
▁dra	-9956
▁lat	-9957
▁poo	-9958
▁rim	-9959
▁rou	-9960
▁swo	-9961
▁wit	-9962
▁yor	-9963
arket	-9964
asion	-9965
early	-9966
▁	-9967
a	-9968
e	-9969
n	-9970
i	-9971
o	-9972
t	-9973
r	-9974
s	-9975
l	-9976
h	-9977
g	-9978
d	-9979
w	-9980
c	-9981
b	-9982
u	-9983
p	-9984
m	-9985
k	-9986
y	-9987
f	-9988
v	-9989
j	-9990
x	-9991
-	-9992
z	-9993
q	-9994
9	-9995
